{
  "version": "1.0",
  "truncation": null,
  "padding": null,
  "added_tokens": [
    {
      "id": 0,
      "content": "<PAD>",
      "single_word": false,
      "lstrip": false,
      "rstrip": false,
      "normalized": false,
      "special": true
    },
    {
      "id": 1,
      "content": "<BOS>",
      "single_word": false,
      "lstrip": false,
      "rstrip": false,
      "normalized": false,
      "special": true
    },
    {
      "id": 2,
      "content": "<EOS>",
      "single_word": false,
      "lstrip": false,
      "rstrip": false,
      "normalized": false,
      "special": true
    },
    {
      "id": 3,
      "content": "<UNK>",
      "single_word": false,
      "lstrip": false,
      "rstrip": false,
      "normalized": false,
      "special": true
    }
  ],
  "normalizer": null,
  "pre_tokenizer": {
    "type": "Whitespace"
  },
  "post_processor": null,
  "decoder": {
    "type": "BPEDecoder",
    "suffix": "</w>"
  },
  "model": {
    "type": "BPE",
    "dropout": null,
    "unk_token": null,
    "continuing_subword_prefix": null,
    "end_of_word_suffix": null,
    "fuse_unk": false,
    "byte_fallback": false,
    "ignore_merges": false,
    "vocab": {
      "<PAD>": 0,
      "<BOS>": 1,
      "<EOS>": 2,
      "<UNK>": 3,
      "!": 4,
      "$": 5,
      "&": 6,
      "'": 7,
      ",": 8,
      "-": 9,
      ".": 10,
      "3": 11,
      ":": 12,
      ";": 13,
      "?": 14,
      "A": 15,
      "B": 16,
      "C": 17,
      "D": 18,
      "E": 19,
      "F": 20,
      "G": 21,
      "H": 22,
      "I": 23,
      "J": 24,
      "K": 25,
      "L": 26,
      "M": 27,
      "N": 28,
      "O": 29,
      "P": 30,
      "Q": 31,
      "R": 32,
      "S": 33,
      "T": 34,
      "U": 35,
      "V": 36,
      "W": 37,
      "X": 38,
      "Y": 39,
      "Z": 40,
      "a": 41,
      "b": 42,
      "c": 43,
      "d": 44,
      "e": 45,
      "f": 46,
      "g": 47,
      "h": 48,
      "i": 49,
      "j": 50,
      "k": 51,
      "l": 52,
      "m": 53,
      "n": 54,
      "o": 55,
      "p": 56,
      "q": 57,
      "r": 58,
      "s": 59,
      "t": 60,
      "u": 61,
      "v": 62,
      "w": 63,
      "x": 64,
      "y": 65,
      "z": 66,
      "th": 67,
      "ou": 68,
      "er": 69,
      "in": 70,
      "an": 71,
      "the": 72,
      "or": 73,
      "is": 74,
      "en": 75,
      "ar": 76,
      "at": 77,
      "on": 78,
      "st": 79,
      "ll": 80,
      "me": 81,
      "to": 82,
      "and": 83,
      "he": 84,
      "es": 85,
      "you": 86,
      "no": 87,
      "se": 88,
      "ha": 89,
      "re": 90,
      "of": 91,
      "ve": 92,
      "it": 93,
      "ing": 94,
      "be": 95,
      "le": 96,
      "wi": 97,
      "hi": 98,
      "my": 99,
      "ce": 100,
      "ro": 101,
      "for": 102,
      "ay": 103,
      "ch": 104,
      "as": 105,
      "nd": 106,
      "ere": 107,
      "ld": 108,
      "ir": 109,
      "de": 110,
      "ow": 111,
      "ut": 112,
      "not": 113,
      "li": 114,
      "we": 115,
      "that": 116,
      "hat": 117,
      "ke": 118,
      "gh": 119,
      "And": 120,
      "ed": 121,
      "our": 122,
      "oo": 123,
      "with": 124,
      "his": 125,
      "ome": 126,
      "your": 127,
      "ri": 128,
      "ent": 129,
      "thou": 130,
      "al": 131,
      "ther": 132,
      "ad": 133,
      "et": 134,
      "EN": 135,
      "ur": 136,
      "ght": 137,
      "us": 138,
      "him": 139,
      "all": 140,
      "IN": 141,
      "have": 142,
      "ra": 143,
      "ly": 144,
      "so": 145,
      "this": 146,
      "ord": 147,
      "do": 148,
      "ho": 149,
      "un": 150,
      "pe": 151,
      "AR": 152,
      "fe": 153,
      "ess": 154,
      "ma": 155,
      "lo": 156,
      "ould": 157,
      "ood": 158,
      "thy": 159,
      "ti": 160,
      "here": 161,
      "are": 162,
      "ver": 163,
      "man": 164,
      "one": 165,
      "fa": 166,
      "The": 167,
      "sha": 168,
      "ck": 169,
      "now": 170,
      "ge": 171,
      "la": 172,
      "id": 173,
      "ne": 174,
      "will": 175,
      "US": 176,
      "ard": 177,
      "but": 178,
      "su": 179,
      "am": 180,
      "her": 181,
      "IO": 182,
      "con": 183,
      "ter": 184,
      "To": 185,
      "Th": 186,
      "pr": 187,
      "ue": 188,
      "by": 189,
      "ain": 190,
      "end": 191,
      "art": 192,
      "ING": 193,
      "thee": 194,
      "om": 195,
      "shall": 196,
      "up": 197,
      "mor": 198,
      "rom": 199,
      "sh": 200,
      "po": 201,
      "ES": 202,
      "ous": 203,
      "OR": 204,
      "ust": 205,
      "That": 206,
      "come": 207,
      "sel": 208,
      "what": 209,
      "tr": 210,
      "mo": 211,
      "ER": 212,
      "lord": 213,
      "ta": 214,
      "te": 215,
      "ill": 216,
      "LA": 217,
      "ath": 218,
      "KING": 219,
      "good": 220,
      "king": 221,
      "go": 222,
      "ight": 223,
      "if": 224,
      "UC": 225,
      "But": 226,
      "hen": 227,
      "ion": 228,
      "hich": 229,
      "row": 230,
      "ine": 231,
      "ven": 232,
      "ble": 233,
      "bo": 234,
      "ul": 235,
      "IC": 236,
      "from": 237,
      "was": 238,
      "bl": 239,
      "What": 240,
      "ET": 241,
      "ant": 242,
      "il": 243,
      "For": 244,
      "ong": 245,
      "them": 246,
      "more": 247,
      "well": 248,
      "IUS": 249,
      "sa": 250,
      "ARD": 251,
      "would": 252,
      "ca": 253,
      "self": 254,
      "ct": 255,
      "can": 256,
      "out": 257,
      "she": 258,
      "there": 259,
      "love": 260,
      "ive": 261,
      "per": 262,
      "ak": 263,
      "know": 264,
      "wor": 265,
      "ind": 266,
      "their": 267,
      "let": 268,
      "ci": 269,
      "di": 270,
      "see": 271,
      "then": 272,
      "own": 273,
      "My": 274,
      "say": 275,
      "EL": 276,
      "com": 277,
      "they": 278,
      "than": 279,
      "ence": 280,
      "--": 281,
      "ry": 282,
      "sir": 283,
      "ate": 284,
      "bro": 285,
      "fore": 286,
      "ear": 287,
      "ag": 288,
      "Go": 289,
      "KE": 290,
      "ep": 291,
      "spe": 292,
      "II": 293,
      "ers": 294,
      "like": 295,
      "pro": 296,
      "may": 297,
      "As": 298,
      "were": 299,
      "ish": 300,
      "um": 301,
      "We": 302,
      "ves": 303,
      "gra": 304,
      "way": 305,
      "time": 306,
      "ast": 307,
      "hath": 308,
      "hy": 309,
      "OL": 310,
      "irst": 311,
      "ol": 312,
      "ure": 313,
      "ink": 314,
      "who": 315,
      "He": 316,
      "ple": 317,
      "qu": 318,
      "No": 319,
      "make": 320,
      "OM": 321,
      "ith": 322,
      "ound": 323,
      "must": 324,
      "You": 325,
      "some": 326,
      "thing": 327,
      "ave": 328,
      "LO": 329,
      "ity": 330,
      "use": 331,
      "had": 332,
      "should": 333,
      "too": 334,
      "upon": 335,
      "death": 336,
      "ap": 337,
      "dis": 338,
      "ook": 339,
      "ward": 340,
      "day": 341,
      "CA": 342,
      "fri": 343,
      "son": 344,
      "fi": 345,
      "RIC": 346,
      "RICH": 347,
      "DU": 348,
      "vi": 349,
      "DUKE": 350,
      "EO": 351,
      "did": 352,
      "which": 353,
      "oun": 354,
      "word": 355,
      "ance": 356,
      "wo": 357,
      "father": 358,
      "UL": 359,
      "RICHARD": 360,
      "If": 361,
      "si": 362,
      "men": 363,
      "heart": 364,
      "TIO": 365,
      "when": 366,
      "reat": 367,
      "speak": 368,
      "ful": 369,
      "In": 370,
      "hand": 371,
      "again": 372,
      "how": 373,
      "sp": 374,
      "yet": 375,
      "est": 376,
      "entle": 377,
      "gn": 378,
      "Which": 379,
      "God": 380,
      "AB": 381,
      "Be": 382,
      "blood": 383,
      "think": 384,
      "First": 385,
      "ince": 386,
      "With": 387,
      "ac": 388,
      "very": 389,
      "old": 390,
      "brother": 391,
      "UE": 392,
      "INC": 393,
      "mine": 394,
      "hea": 395,
      "Thou": 396,
      "des": 397,
      "onour": 398,
      "take": 399,
      "hear": 400,
      "TER": 401,
      "swe": 402,
      "mar": 403,
      "el": 404,
      "give": 405,
      "Of": 406,
      "bre": 407,
      "ex": 408,
      "land": 409,
      "na": 410,
      "str": 411,
      "uch": 412,
      "AN": 413,
      "less": 414,
      "que": 415,
      "GLO": 416,
      "ESTER": 417,
      "UCESTER": 418,
      "GLOUCESTER": 419,
      "vo": 420,
      "most": 421,
      "ment": 422,
      "ba": 423,
      "other": 424,
      "ise": 425,
      "such": 426,
      "friend": 427,
      "IS": 428,
      "these": 429,
      "Lord": 430,
      "ey": 431,
      "ness": 432,
      "llow": 433,
      "So": 434,
      "coun": 435,
      "life": 436,
      "RY": 437,
      "Rome": 438,
      "ty": 439,
      "urse": 440,
      "Why": 441,
      "any": 442,
      "QUE": 443,
      "LAN": 444,
      "QUEEN": 445,
      "war": 446,
      "ang": 447,
      "OF": 448,
      "ving": 449,
      "oul": 450,
      "This": 451,
      "ENTIO": 452,
      "ts": 453,
      "where": 454,
      "tell": 455,
      "How": 456,
      "honour": 457,
      "ady": 458,
      "BR": 459,
      "ab": 460,
      "Come": 461,
      "Who": 462,
      "new": 463,
      "HEN": 464,
      "Mar": 465,
      "af": 466,
      "br": 467,
      "look": 468,
      "Se": 469,
      "tion": 470,
      "im": 471,
      "night": 472,
      "rown": 473,
      "cond": 474,
      "gentle": 475,
      "off": 476,
      "made": 477,
      "fair": 478,
      "HENRY": 479,
      "ster": 480,
      "hast": 481,
      "much": 482,
      "ans": 483,
      "fear": 484,
      "pre": 485,
      "stand": 486,
      "chi": 487,
      "lie": 488,
      "tis": 489,
      "urn": 490,
      "VINC": 491,
      "ond": 492,
      "VINCENTIO": 493,
      "age": 494,
      "ort": 495,
      "pl": 496,
      "Is": 497,
      "YOR": 498,
      "ign": 499,
      "ng": 500,
      "uke": 501,
      "YORK": 502,
      "Where": 503,
      "part": 504,
      "ef": 505,
      "sc": 506,
      "ught": 507,
      "mis": 508,
      "tle": 509,
      "INIUS": 510,
      "NT": 511,
      "Your": 512,
      "live": 513,
      "pla": 514,
      "iti": 515,
      "AU": 516,
      "fo": 517,
      "em": 518,
      "jo": 519,
      "lt": 520,
      "arm": 521,
      "ation": 522,
      "ower": 523,
      "name": 524,
      "DW": 525,
      "EDW": 526,
      "che": 527,
      "EDWARD": 528,
      "ber": 529,
      "great": 530,
      "noble": 531,
      "heaven": 532,
      "bear": 533,
      "true": 534,
      "Now": 535,
      "Or": 536,
      "cannot": 537,
      "fl": 538,
      "ser": 539,
      "never": 540,
      "head": 541,
      "An": 542,
      "Ed": 543,
      "ree": 544,
      "fort": 545,
      "HA": 546,
      "It": 547,
      "been": 548,
      "MEN": 549,
      "ROM": 550,
      "ces": 551,
      "call": 552,
      "int": 553,
      "Edward": 554,
      "ROMEO": 555,
      "ENIUS": 556,
      "grace": 557,
      "MENENIUS": 558,
      "ase": 559,
      "ever": 560,
      "red": 561,
      "Ri": 562,
      "pa": 563,
      "op": 564,
      "zen": 565,
      "ough": 566,
      ",--": 567,
      "There": 568,
      "done": 569,
      "queen": 570,
      "ies": 571,
      "mer": 572,
      "soul": 573,
      "doth": 574,
      "nor": 575,
      "wr": 576,
      "dead": 577,
      "gr": 578,
      "pt": 579,
      "bet": 580,
      "sweet": 581,
      "By": 582,
      "und": 583,
      "rest": 584,
      "ull": 585,
      "MAR": 586,
      "res": 587,
      "When": 588,
      "ace": 589,
      "ouse": 590,
      "ars": 591,
      "Cl": 592,
      "COR": 593,
      "IZ": 594,
      "ass": 595,
      "IOLAN": 596,
      "pray": 597,
      "CORIOLAN": 598,
      "CORIOLANUS": 599,
      "ake": 600,
      "comm": 601,
      "Second": 602,
      "ie": 603,
      "ice": 604,
      "ings": 605,
      "Ay": 606,
      "orn": 607,
      "down": 608,
      "ss": 609,
      "set": 610,
      "ite": 611,
      "mother": 612,
      "both": 613,
      "Let": 614,
      "co": 615,
      "ret": 616,
      "before": 617,
      "Than": 618,
      "Rich": 619,
      "pres": 620,
      "world": 621,
      "cour": 622,
      "der": 623,
      "Nor": 624,
      "put": 625,
      "thought": 626,
      "itizen": 627,
      "Then": 628,
      "Here": 629,
      "IV": 630,
      "hold": 631,
      "cause": 632,
      "pp": 633,
      "tri": 634,
      "wick": 635,
      "comes": 636,
      "III": 637,
      "long": 638,
      "ore": 639,
      "child": 640,
      "leave": 641,
      "myself": 642,
      "deed": 643,
      "being": 644,
      "friends": 645,
      "eyes": 646,
      "da": 647,
      "whi": 648,
      "ved": 649,
      "die": 650,
      "War": 651,
      "house": 652,
      "tra": 653,
      "uck": 654,
      "thus": 655,
      "ford": 656,
      "poor": 657,
      "Warwick": 658,
      "LUC": 659,
      "pri": 660,
      "beg": 661,
      "mi": 662,
      "led": 663,
      "dy": 664,
      "ELLA": 665,
      "ABELLA": 666,
      "ISABELLA": 667,
      "right": 668,
      "Romeo": 669,
      "CL": 670,
      "UM": 671,
      "crown": 672,
      "gri": 673,
      "atter": 674,
      "wife": 675,
      "away": 676,
      "many": 677,
      "cious": 678,
      "IET": 679,
      "JUL": 680,
      "LEO": 681,
      "ins": 682,
      "ughter": 683,
      "NTES": 684,
      "JULIET": 685,
      "LEONTES": 686,
      "Do": 687,
      "His": 688,
      "VI": 689,
      "ks": 690,
      "She": 691,
      "might": 692,
      "ten": 693,
      "light": 694,
      "DY": 695,
      "IL": 696,
      "ach": 697,
      "tre": 698,
      "LADY": 699,
      "CE": 700,
      "VOL": 701,
      "ru": 702,
      "ted": 703,
      "eng": 704,
      "ded": 705,
      "ENCE": 706,
      "tong": 707,
      "ison": 708,
      "stay": 709,
      "Citizen": 710,
      "ds": 711,
      "prince": 712,
      "pose": 713,
      "gu": 714,
      "gone": 715,
      "ose": 716,
      "ps": 717,
      "urder": 718,
      "Ser": 719,
      "SIC": 720,
      "foo": 721,
      "kes": 722,
      "SICINIUS": 723,
      "lit": 724,
      "ange": 725,
      "face": 726,
      "words": 727,
      "nothing": 728,
      "till": 729,
      "lords": 730,
      "cl": 731,
      "ither": 732,
      "ors": 733,
      "atch": 734,
      "ears": 735,
      "EY": 736,
      "par": 737,
      "wer": 738,
      "though": 739,
      "show": 740,
      "against": 741,
      "joy": 742,
      "Pro": 743,
      "bid": 744,
      "tal": 745,
      "those": 746,
      "law": 747,
      "Well": 748,
      "Tis": 749,
      "bra": 750,
      "ction": 751,
      "ft": 752,
      "news": 753,
      "LUCIO": 754,
      "duke": 755,
      "sent": 756,
      "une": 757,
      "better": 758,
      "Richard": 759,
      "able": 760,
      "roy": 761,
      "Sir": 762,
      "Un": 763,
      "ban": 764,
      "hour": 765,
      "kind": 766,
      "pur": 767,
      "sla": 768,
      "himself": 769,
      "Yor": 770,
      "power": 771,
      "hel": 772,
      "hence": 773,
      "Sha": 774,
      "cy": 775,
      "high": 776,
      "ardon": 777,
      "little": 778,
      "band": 779,
      "den": 780,
      "ETH": 781,
      "ELIZ": 782,
      "Not": 783,
      "ABETH": 784,
      "York": 785,
      "ELIZABETH": 786,
      "lady": 787,
      "mad": 788,
      "still": 789,
      "dear": 790,
      "peace": 791,
      "Nay": 792,
      "could": 793,
      "far": 794,
      "char": 795,
      "Hen": 796,
      "gi": 797,
      "just": 798,
      "ren": 799,
      "best": 800,
      "keep": 801,
      "hope": 802,
      "sub": 803,
      "back": 804,
      "Henry": 805,
      "Have": 806,
      "IA": 807,
      "MER": 808,
      "NE": 809,
      "sle": 810,
      "cont": 811,
      "tongue": 812,
      "Will": 813,
      "ople": 814,
      "ason": 815,
      "Thy": 816,
      "WAR": 817,
      "WIC": 818,
      "cut": 819,
      "dre": 820,
      "ech": 821,
      "people": 822,
      "earth": 823,
      "WARWIC": 824,
      "WARWICK": 825,
      "UT": 826,
      "bes": 827,
      "tend": 828,
      "Nurse": 829,
      "je": 830,
      "nat": 831,
      "thr": 832,
      "ought": 833,
      "ste": 834,
      "GR": 835,
      "cha": 836,
      "full": 837,
      "sor": 838,
      "two": 839,
      "young": 840,
      "its": 841,
      "arewell": 842,
      "need": 843,
      "UCH": 844,
      "HAM": 845,
      "PUL": 846,
      "cle": 847,
      "forth": 848,
      "unto": 849,
      "CAPUL": 850,
      "daughter": 851,
      "CAPULET": 852,
      "fall": 853,
      "hus": 854,
      "lay": 855,
      "ark": 856,
      "place": 857,
      "tain": 858,
      "bed": 859,
      "conf": 860,
      "follow": 861,
      "gar": 862,
      "thine": 863,
      "iness": 864,
      "once": 865,
      "happ": 866,
      "ousin": 867,
      "after": 868,
      "under": 869,
      "husband": 870,
      "BUC": 871,
      "find": 872,
      "home": 873,
      "pardon": 874,
      "fellow": 875,
      "last": 876,
      "KINGHAM": 877,
      "seem": 878,
      "BRUT": 879,
      "Shall": 880,
      "BUCKINGHAM": 881,
      "BRUTUS": 882,
      "BOL": 883,
      "Good": 884,
      "OKE": 885,
      "first": 886,
      "ius": 887,
      "kill": 888,
      "vant": 889,
      "why": 890,
      "ried": 891,
      "INGBR": 892,
      "ESS": 893,
      "LAU": 894,
      "therefore": 895,
      "qui": 896,
      "BOLINGBR": 897,
      "BOLINGBROKE": 898,
      "MIL": 899,
      "Yet": 900,
      "ran": 901,
      "tru": 902,
      "tears": 903,
      "vost": 904,
      "TH": 905,
      "pi": 906,
      "mean": 907,
      "shame": 908,
      "try": 909,
      "else": 910,
      "gl": 911,
      "get": 912,
      "gue": 913,
      "mind": 914,
      "boy": 915,
      "said": 916,
      "came": 917,
      "comp": 918,
      "hands": 919,
      "acc": 920,
      "All": 921,
      "GAR": 922,
      "bu": 923,
      "dra": 924,
      "io": 925,
      "none": 926,
      "oud": 927,
      "ister": 928,
      "rep": 929,
      "MARGAR": 930,
      "royal": 931,
      "MARGARET": 932,
      "From": 933,
      "dr": 934,
      "gen": 935,
      "ates": 936,
      "They": 937,
      "morrow": 938,
      "tem": 939,
      "whose": 940,
      "dou": 941,
      "GEL": 942,
      "Our": 943,
      "jest": 944,
      "state": 945,
      "hither": 946,
      "ORD": 947,
      "gracious": 948,
      "woman": 949,
      "ANGEL": 950,
      "ANGELO": 951,
      "Eng": 952,
      "King": 953,
      "vy": 954,
      "arence": 955,
      "please": 956,
      "wrong": 957,
      "Clarence": 958,
      "clo": 959,
      "sand": 960,
      "maid": 961,
      "cius": 962,
      "present": 963,
      "sorrow": 964,
      "On": 965,
      "pat": 966,
      "vere": 967,
      "heard": 968,
      "weep": 969,
      "Marcius": 970,
      "FR": 971,
      "ST": 972,
      "cer": 973,
      "car": 974,
      "fal": 975,
      "gain": 976,
      "shi": 977,
      "meet": 978,
      "help": 979,
      "LUS": 980,
      "cousin": 981,
      "every": 982,
      "mber": 983,
      "ting": 984,
      "wel": 985,
      "prison": 986,
      "ESCA": 987,
      "bring": 988,
      "ESCALUS": 989,
      "ff": 990,
      "since": 991,
      "hate": 992,
      "lack": 993,
      "selves": 994,
      "whom": 995,
      "eye": 996,
      "answer": 997,
      "while": 998,
      "ON": 999,
      "St": 1000,
      "sen": 1001,
      "sun": 1002,
      "lies": 1003,
      "thousand": 1004,
      "makes": 1005,
      "DUCH": 1006,
      "ken": 1007,
      "vir": 1008,
      "wn": 1009,
      "ceive": 1010,
      "asure": 1011,
      "body": 1012,
      "broke": 1013,
      "vice": 1014,
      "about": 1015,
      "DUCHESS": 1016,
      "cur": 1017,
      "eld": 1018,
      "over": 1019,
      "pher": 1020,
      "xt": 1021,
      "ition": 1022,
      "Ange": 1023,
      "grief": 1024,
      "Pr": 1025,
      "Up": 1026,
      "pet": 1027,
      "fortune": 1028,
      "urderer": 1029,
      "Angelo": 1030,
      "Duke": 1031,
      "ged": 1032,
      "mon": 1033,
      "pass": 1034,
      "wit": 1035,
      "wilt": 1036,
      "CAMIL": 1037,
      "anger": 1038,
      "ject": 1039,
      "CAMILLO": 1040,
      "Hath": 1041,
      "bal": 1042,
      "bus": 1043,
      "hor": 1044,
      "ning": 1045,
      "vil": 1046,
      "into": 1047,
      "ory": 1048,
      "reme": 1049,
      "INA": 1050,
      "unt": 1051,
      "gentleman": 1052,
      "Provost": 1053,
      "Her": 1054,
      "fight": 1055,
      "kne": 1056,
      "ost": 1057,
      "faul": 1058,
      "Bo": 1059,
      "IAR": 1060,
      "Ty": 1061,
      "bt": 1062,
      "cla": 1063,
      "min": 1064,
      "rant": 1065,
      "turn": 1066,
      "ud": 1067,
      "ery": 1068,
      "another": 1069,
      "ary": 1070,
      "stri": 1071,
      "sed": 1072,
      "form": 1073,
      "uty": 1074,
      "dost": 1075,
      "prove": 1076,
      "grave": 1077,
      "times": 1078,
      "trait": 1079,
      "FRIAR": 1080,
      "Even": 1081,
      "Thi": 1082,
      "bri": 1083,
      "cess": 1084,
      "even": 1085,
      "eech": 1086,
      "gre": 1087,
      "ked": 1088,
      "country": 1089,
      "happy": 1090,
      "vereign": 1091,
      "CUS": 1092,
      "COM": 1093,
      "TOL": 1094,
      "YCUS": 1095,
      "va": 1096,
      "sovereign": 1097,
      "AUTOL": 1098,
      "arms": 1099,
      "fool": 1100,
      "banish": 1101,
      "false": 1102,
      "COMINIUS": 1103,
      "AUTOLYCUS": 1104,
      "LE": 1105,
      "matter": 1106,
      "rd": 1107,
      "ised": 1108,
      "has": 1109,
      "ARENCE": 1110,
      "LAND": 1111,
      "CLARENCE": 1112,
      "content": 1113,
      "Third": 1114,
      "cra": 1115,
      "ic": 1116,
      "ire": 1117,
      "sound": 1118,
      "wish": 1119,
      "iss": 1120,
      "reven": 1121,
      "reason": 1122,
      "ENES": 1123,
      "pos": 1124,
      "play": 1125,
      "pherd": 1126,
      "At": 1127,
      "Are": 1128,
      "BEN": 1129,
      "NOR": 1130,
      "les": 1131,
      "wa": 1132,
      "ene": 1133,
      "ready": 1134,
      "holy": 1135,
      "comfort": 1136,
      "spir": 1137,
      "deser": 1138,
      "swear": 1139,
      "breath": 1140,
      "Clown": 1141,
      "VOLIO": 1142,
      "sleep": 1143,
      "truth": 1144,
      "Upon": 1145,
      "BENVOLIO": 1146,
      "More": 1147,
      "PA": 1148,
      "cor": 1149,
      "years": 1150,
      "indeed": 1151,
      "pati": 1152,
      ".'": 1153,
      "CU": 1154,
      "Gentle": 1155,
      "Murderer": 1156,
      "Would": 1157,
      "want": 1158,
      "ye": 1159,
      "ator": 1160,
      "stra": 1161,
      "ows": 1162,
      "ury": 1163,
      "sold": 1164,
      "ield": 1165,
      "MERCU": 1166,
      "dream": 1167,
      "MERCUTIO": 1168,
      "Ju": 1169,
      "mb": 1170,
      "vent": 1171,
      "vill": 1172,
      "ze": 1173,
      "ori": 1174,
      "only": 1175,
      "onest": 1176,
      "thank": 1177,
      "virt": 1178,
      "POM": 1179,
      "Te": 1180,
      "send": 1181,
      "spo": 1182,
      "ouch": 1183,
      "enough": 1184,
      "lives": 1185,
      "rather": 1186,
      "pect": 1187,
      "got": 1188,
      "common": 1189,
      "talk": 1190,
      "madam": 1191,
      "POMP": 1192,
      "MIO": 1193,
      "Sh": 1194,
      "care": 1195,
      "late": 1196,
      "pity": 1197,
      "arn": 1198,
      "med": 1199,
      "shalt": 1200,
      "ULINA": 1201,
      "Servant": 1202,
      "PAULINA": 1203,
      "Al": 1204,
      "Ro": 1205,
      "wound": 1206,
      "anta": 1207,
      "offi": 1208,
      "dom": 1209,
      "fect": 1210,
      "master": 1211,
      "lau": 1212,
      "gods": 1213,
      "POMPEY": 1214,
      "Give": 1215,
      "IX": 1216,
      "NIA": 1217,
      "POL": 1218,
      "Were": 1219,
      "prom": 1220,
      "wom": 1221,
      "yield": 1222,
      "force": 1223,
      "ours": 1224,
      "worn": 1225,
      "lieve": 1226,
      "UMNIA": 1227,
      "VOLUMNIA": 1228,
      "beseech": 1229,
      "nature": 1230,
      "gener": 1231,
      "England": 1232,
      "Tybal": 1233,
      "IXENES": 1234,
      "POLIXENES": 1235,
      "BER": 1236,
      "born": 1237,
      "city": 1238,
      "hang": 1239,
      "rel": 1240,
      "proud": 1241,
      "aint": 1242,
      "INGS": 1243,
      "appe": 1244,
      "bloody": 1245,
      "vingman": 1246,
      "HAST": 1247,
      "enger": 1248,
      "Servingman": 1249,
      "doubt": 1250,
      "soldi": 1251,
      "Tybalt": 1252,
      "HASTINGS": 1253,
      "RENCE": 1254,
      "Take": 1255,
      "air": 1256,
      "cre": 1257,
      "hum": 1258,
      "wind": 1259,
      "dem": 1260,
      "lif": 1261,
      "yours": 1262,
      "vers": 1263,
      "quest": 1264,
      "subject": 1265,
      "LAURENCE": 1266,
      "gainst": 1267,
      "Ah": 1268,
      "BY": 1269,
      "May": 1270,
      "danger": 1271,
      "free": 1272,
      "sm": 1273,
      "wis": 1274,
      "went": 1275,
      "three": 1276,
      "seen": 1277,
      "uncle": 1278,
      "majest": 1279,
      "tress": 1280,
      "command": 1281,
      "Juli": 1282,
      ",'": 1283,
      "Can": 1284,
      "FF": 1285,
      "IFF": 1286,
      "Look": 1287,
      "MO": 1288,
      "igh": 1289,
      "oath": 1290,
      "sin": 1291,
      "inter": 1292,
      "ask": 1293,
      "deli": 1294,
      "unes": 1295,
      "faith": 1296,
      "days": 1297,
      "children": 1298,
      "CLIFF": 1299,
      "UMBER": 1300,
      "tender": 1301,
      "THUMBER": 1302,
      "business": 1303,
      "traitor": 1304,
      "NORTHUMBER": 1305,
      "majesty": 1306,
      "NORTHUMBERLAND": 1307,
      "Hast": 1308,
      "ID": 1309,
      "Mon": 1310,
      "Say": 1311,
      "bit": 1312,
      "sight": 1313,
      "sword": 1314,
      "sister": 1315,
      "means": 1316,
      "enter": 1317,
      "gether": 1318,
      "sure": 1319,
      "bles": 1320,
      "break": 1321,
      "haste": 1322,
      "Therefore": 1323,
      "justice": 1324,
      "Com": 1325,
      "Some": 1326,
      "honest": 1327,
      "nurse": 1328,
      "rance": 1329,
      "sing": 1330,
      "anca": 1331,
      "read": 1332,
      "bea": 1333,
      "change": 1334,
      "yourself": 1335,
      "ents": 1336,
      "person": 1337,
      "ANNE": 1338,
      "mercy": 1339,
      "court": 1340,
      "draw": 1341,
      "Con": 1342,
      "Clif": 1343,
      "Le": 1344,
      "Li": 1345,
      "PR": 1346,
      "bat": 1347,
      "ms": 1348,
      "sea": 1349,
      "oft": 1350,
      "within": 1351,
      "suit": 1352,
      "things": 1353,
      "woe": 1354,
      "INCE": 1355,
      "plain": 1356,
      "return": 1357,
      "villain": 1358,
      "Juliet": 1359,
      "Clifford": 1360,
      "PRINCE": 1361,
      "Bol": 1362,
      "Did": 1363,
      "Was": 1364,
      "athe": 1365,
      "foul": 1366,
      "farewell": 1367,
      "vis": 1368,
      "ones": 1369,
      "together": 1370,
      "hal": 1371,
      "ingbroke": 1372,
      "wear": 1373,
      "sue": 1374,
      "point": 1375,
      "saw": 1376,
      "warrant": 1377,
      "looks": 1378,
      "liege": 1379,
      "GRE": 1380,
      "Tell": 1381,
      "Bolingbroke": 1382,
      "Re": 1383,
      "fly": 1384,
      "found": 1385,
      "kiss": 1386,
      "pain": 1387,
      "told": 1388,
      "ham": 1389,
      "beat": 1390,
      "adv": 1391,
      "ush": 1392,
      "trust": 1393,
      "gold": 1394,
      "save": 1395,
      "worthy": 1396,
      "voi": 1397,
      "purpose": 1398,
      "welcome": 1399,
      "AL": 1400,
      "Farewell": 1401,
      "curse": 1402,
      "grow": 1403,
      "hard": 1404,
      "tit": 1405,
      "cks": 1406,
      "near": 1407,
      "cons": 1408,
      "heavy": 1409,
      "onder": 1410,
      "Monta": 1411,
      "half": 1412,
      "France": 1413,
      "Gl": 1414,
      "Had": 1415,
      "Sen": 1416,
      "fit": 1417,
      "ily": 1418,
      "ling": 1419,
      "pen": 1420,
      "past": 1421,
      "run": 1422,
      "sit": 1423,
      "def": 1424,
      "known": 1425,
      "friar": 1426,
      "Whose": 1427,
      "ground": 1428,
      "ength": 1429,
      "slain": 1430,
      "horse": 1431,
      "FL": 1432,
      "FID": 1433,
      "Mess": 1434,
      "sad": 1435,
      "sil": 1436,
      "sworn": 1437,
      "wall": 1438,
      "outh": 1439,
      "heir": 1440,
      "bel": 1441,
      "left": 1442,
      "ute": 1443,
      "soon": 1444,
      "thyself": 1445,
      "ORIZ": 1446,
      "letter": 1447,
      "Though": 1448,
      "AUFID": 1449,
      "foot": 1450,
      "ship": 1451,
      "general": 1452,
      "FLORIZ": 1453,
      "Messenger": 1454,
      "AUFIDIUS": 1455,
      "FLORIZEL": 1456,
      "Clau": 1457,
      "Jo": 1458,
      "One": 1459,
      "cry": 1460,
      "dow": 1461,
      "fol": 1462,
      "gro": 1463,
      "rue": 1464,
      "wat": 1465,
      "ceed": 1466,
      "dest": 1467,
      "without": 1468,
      "lost": 1469,
      "These": 1470,
      "same": 1471,
      "worth": 1472,
      "dio": 1473,
      "used": 1474,
      "side": 1475,
      "thinks": 1476,
      "strange": 1477,
      "ches": 1478,
      "pair": 1479,
      "course": 1480,
      "through": 1481,
      "report": 1482,
      "claim": 1483,
      "revenge": 1484,
      "Should": 1485,
      "Claudio": 1486,
      "Whi": 1487,
      "cold": 1488,
      "ecut": 1489,
      "ga": 1490,
      "jud": 1491,
      "ob": 1492,
      "hed": 1493,
      "itself": 1494,
      "believe": 1495,
      "deep": 1496,
      "som": 1497,
      "loss": 1498,
      "amill": 1499,
      "ends": 1500,
      "ERS": 1501,
      "umber": 1502,
      "quar": 1503,
      "execut": 1504,
      "strong": 1505,
      "grant": 1506,
      "charge": 1507,
      "quick": 1508,
      "Pray": 1509,
      "fault": 1510,
      "enemy": 1511,
      "Gentleman": 1512,
      "Like": 1513,
      "Senator": 1514,
      "CIUS": 1515,
      "Cap": 1516,
      "De": 1517,
      "Me": 1518,
      "gs": 1519,
      "ide": 1520,
      "wise": 1521,
      "ouce": 1522,
      "youth": 1523,
      "does": 1524,
      "lose": 1525,
      "consu": 1526,
      "press": 1527,
      "bold": 1528,
      "says": 1529,
      "pluck": 1530,
      "service": 1531,
      "MARCIUS": 1532,
      "thoughts": 1533,
      "Shepherd": 1534,
      "Montague": 1535,
      "Glouce": 1536,
      "Camill": 1537,
      "PET": 1538,
      "TR": 1539,
      "bir": 1540,
      "cal": 1541,
      "fet": 1542,
      "fur": 1543,
      "ner": 1544,
      "toward": 1545,
      "hell": 1546,
      "ingham": 1547,
      "alone": 1548,
      "fast": 1549,
      "ump": 1550,
      "aster": 1551,
      "fire": 1552,
      "desire": 1553,
      "marry": 1554,
      "counter": 1555,
      "counsel": 1556,
      "See": 1557,
      "open": 1558,
      "hours": 1559,
      "Camillo": 1560,
      "!'": 1561,
      "Away": 1562,
      "Against": 1563,
      "Buck": 1564,
      "Ca": 1565,
      "Ha": 1566,
      "Mad": 1567,
      "Vol": 1568,
      "act": 1569,
      "ges": 1570,
      "murder": 1571,
      "ris": 1572,
      "val": 1573,
      "wd": 1574,
      "behold": 1575,
      "lead": 1576,
      "learn": 1577,
      "feel": 1578,
      "ERD": 1579,
      "knows": 1580,
      "field": 1581,
      "fearful": 1582,
      "stands": 1583,
      "straight": 1584,
      "wenty": 1585,
      "Hastings": 1586,
      "Gloucester": 1587,
      "Buckingham": 1588,
      "Madam": 1589,
      "Au": 1590,
      "DIO": 1591,
      "HOR": 1592,
      "au": 1593,
      "dare": 1594,
      "obe": 1595,
      "ped": 1596,
      "wret": 1597,
      "rich": 1598,
      "prof": 1599,
      "mock": 1600,
      "loved": 1601,
      "pleasure": 1602,
      "Norfol": 1603,
      "voices": 1604,
      "Norfolk": 1605,
      "HER": 1606,
      "Till": 1607,
      "cro": 1608,
      "cri": 1609,
      "dish": 1610,
      "either": 1611,
      "ig": 1612,
      "sat": 1613,
      "twenty": 1614,
      "instr": 1615,
      "hes": 1616,
      "bell": 1617,
      "cho": 1618,
      "chance": 1619,
      "devil": 1620,
      "suc": 1621,
      "sup": 1622,
      "short": 1623,
      "move": 1624,
      "test": 1625,
      "work": 1626,
      "speed": 1627,
      "sick": 1628,
      "sign": 1629,
      "mark": 1630,
      "brought": 1631,
      "pret": 1632,
      "mistress": 1633,
      "AUMER": 1634,
      "ched": 1635,
      "serve": 1636,
      "resol": 1637,
      "guil": 1638,
      "highness": 1639,
      "given": 1640,
      "remember": 1641,
      "spirit": 1642,
      "deliver": 1643,
      "AUMERLE": 1644,
      "Ch": 1645,
      "Lanca": 1646,
      "bow": 1647,
      "bound": 1648,
      "burn": 1649,
      "each": 1650,
      "fer": 1651,
      "fid": 1652,
      "harm": 1653,
      "ious": 1654,
      "low": 1655,
      "ses": 1656,
      "tro": 1657,
      "touch": 1658,
      "ub": 1659,
      "met": 1660,
      "loves": 1661,
      "ides": 1662,
      "Thus": 1663,
      "post": 1664,
      "ils": 1665,
      "married": 1666,
      "strength": 1667,
      "flatter": 1668,
      "confess": 1669,
      "tempt": 1670,
      "patience": 1671,
      "Roman": 1672,
      "Lancaster": 1673,
      "Lady": 1674,
      "Master": 1675,
      "Po": 1676,
      "Pom": 1677,
      "cent": 1678,
      "ici": 1679,
      "sur": 1680,
      "vour": 1681,
      "enem": 1682,
      "order": 1683,
      "fection": 1684,
      "loving": 1685,
      "sake": 1686,
      "cast": 1687,
      "prop": 1688,
      "hearts": 1689,
      "beauty": 1690,
      "enemies": 1691,
      "CLAU": 1692,
      "Most": 1693,
      "Ye": 1694,
      "ather": 1695,
      "bour": 1696,
      "dam": 1697,
      "gates": 1698,
      "ied": 1699,
      "pra": 1700,
      "thri": 1701,
      "ench": 1702,
      "stir": 1703,
      "become": 1704,
      "lips": 1705,
      "ween": 1706,
      "eter": 1707,
      "ally": 1708,
      "mortal": 1709,
      "bosom": 1710,
      "canst": 1711,
      "something": 1712,
      "took": 1713,
      "breathe": 1714,
      "miss": 1715,
      "heavens": 1716,
      "pale": 1717,
      "cover": 1718,
      "certain": 1719,
      "strike": 1720,
      "MIONE": 1721,
      "CLIFFORD": 1722,
      "title": 1723,
      "HERMIONE": 1724,
      "CLAUDIO": 1725,
      "LORD": 1726,
      "brow": 1727,
      "black": 1728,
      "bunes": 1729,
      "dro": 1730,
      "four": 1731,
      "won": 1732,
      "ist": 1733,
      "ished": 1734,
      "wixt": 1735,
      "choo": 1736,
      "oward": 1737,
      "entreat": 1738,
      "rage": 1739,
      "suff": 1740,
      "poison": 1741,
      "themselves": 1742,
      "safe": 1743,
      "Wel": 1744,
      "ments": 1745,
      "foe": 1746,
      "souls": 1747,
      "grie": 1748,
      "women": 1749,
      "appear": 1750,
      "consul": 1751,
      "Aufid": 1752,
      "Aufidius": 1753,
      "AG": 1754,
      "HN": 1755,
      "IT": 1756,
      "JO": 1757,
      "PS": 1758,
      "Per": 1759,
      "aw": 1760,
      "bar": 1761,
      "cred": 1762,
      "dd": 1763,
      "dden": 1764,
      "eper": 1765,
      "hood": 1766,
      "lad": 1767,
      "mouth": 1768,
      "ues": 1769,
      "woo": 1770,
      "throw": 1771,
      "ined": 1772,
      "issue": 1773,
      "held": 1774,
      "ced": 1775,
      "cept": 1776,
      "ash": 1777,
      "liant": 1778,
      "riage": 1779,
      "already": 1780,
      "hop": 1781,
      "hot": 1782,
      "seek": 1783,
      "breast": 1784,
      "Marry": 1785,
      "chee": 1786,
      "Hereford": 1787,
      "posed": 1788,
      "ceived": 1789,
      "Alas": 1790,
      "dangerous": 1791,
      "battle": 1792,
      "further": 1793,
      "suffer": 1794,
      "JOHN": 1795,
      "Cori": 1796,
      "Gre": 1797,
      "Since": 1798,
      "Tower": 1799,
      "aunt": 1800,
      "bad": 1801,
      "bly": 1802,
      "cure": 1803,
      "duty": 1804,
      "gave": 1805,
      "knew": 1806,
      "mit": 1807,
      "mond": 1808,
      "plo": 1809,
      "ring": 1810,
      "twas": 1811,
      "wast": 1812,
      "anus": 1813,
      "ons": 1814,
      "stre": 1815,
      "rema": 1816,
      "hip": 1817,
      "alth": 1818,
      "usur": 1819,
      "next": 1820,
      "poss": 1821,
      "kings": 1822,
      "cient": 1823,
      "olanus": 1824,
      "Being": 1825,
      "join": 1826,
      "fles": 1827,
      "writ": 1828,
      "Richmond": 1829,
      "company": 1830,
      "wounds": 1831,
      "soldiers": 1832,
      "Coriolanus": 1833,
      "Lo": 1834,
      "Spe": 1835,
      "TES": 1836,
      "ger": 1837,
      "ier": 1838,
      "pal": 1839,
      "pie": 1840,
      "twere": 1841,
      "wh": 1842,
      "orge": 1843,
      "often": 1844,
      "eds": 1845,
      "withal": 1846,
      "along": 1847,
      "rah": 1848,
      "sum": 1849,
      "morning": 1850,
      "CATES": 1851,
      "sons": 1852,
      "vict": 1853,
      "Before": 1854,
      "marriage": 1855,
      "voice": 1856,
      "Margar": 1857,
      "presence": 1858,
      "brave": 1859,
      "Unless": 1860,
      "virtue": 1861,
      "quarrel": 1862,
      "satis": 1863,
      "CATESBY": 1864,
      "Margaret": 1865,
      "Bes": 1866,
      "Lond": 1867,
      "Make": 1868,
      "Pl": 1869,
      "fra": 1870,
      "fill": 1871,
      "hind": 1872,
      "kn": 1873,
      "kins": 1874,
      "lst": 1875,
      "mas": 1876,
      "pay": 1877,
      "tor": 1878,
      "whe": 1879,
      "wonder": 1880,
      "aris": 1881,
      "seat": 1882,
      "request": 1883,
      "forget": 1884,
      "ered": 1885,
      "Their": 1886,
      "neither": 1887,
      "consent": 1888,
      "tale": 1889,
      "dire": 1890,
      "thanks": 1891,
      "wars": 1892,
      "throne": 1893,
      "GREY": 1894,
      "spoke": 1895,
      "London": 1896,
      "BAL": 1897,
      "Call": 1898,
      "Isa": 1899,
      "IAN": 1900,
      "Ke": 1901,
      "Lest": 1902,
      "Mer": 1903,
      "Must": 1904,
      "Pe": 1905,
      "Paris": 1906,
      "RIV": 1907,
      "abo": 1908,
      "bla": 1909,
      "bury": 1910,
      "hur": 1911,
      "ior": 1912,
      "kno": 1913,
      "ls": 1914,
      "spr": 1915,
      "uous": 1916,
      "win": 1917,
      "ona": 1918,
      "stop": 1919,
      "ires": 1920,
      "owers": 1921,
      "weak": 1922,
      "goes": 1923,
      "umpet": 1924,
      "Because": 1925,
      "action": 1926,
      "BRA": 1927,
      "scar": 1928,
      "heads": 1929,
      "deeds": 1930,
      "mile": 1931,
      "clou": 1932,
      "close": 1933,
      "brief": 1934,
      "possess": 1935,
      "Speak": 1936,
      "BALT": 1937,
      "RIVERS": 1938,
      "BO": 1939,
      "Ere": 1940,
      "Ge": 1941,
      "GAU": 1942,
      "Pa": 1943,
      "Such": 1944,
      "Yes": 1945,
      "ade": 1946,
      "book": 1947,
      "col": 1948,
      "creat": 1949,
      "coward": 1950,
      "dark": 1951,
      "mus": 1952,
      "pite": 1953,
      "rup": 1954,
      "rough": 1955,
      "tent": 1956,
      "vow": 1957,
      "ina": 1958,
      "ended": 1959,
      "arl": 1960,
      "arry": 1961,
      "mes": 1962,
      "town": 1963,
      "having": 1964,
      "cell": 1965,
      "liber": 1966,
      "unk": 1967,
      "lament": 1968,
      "sudden": 1969,
      "kingdom": 1970,
      "bless": 1971,
      "worse": 1972,
      "div": 1973,
      "dies": 1974,
      "ELBO": 1975,
      "viol": 1976,
      "base": 1977,
      "between": 1978,
      "respect": 1979,
      "North": 1980,
      "mighty": 1981,
      "trem": 1982,
      "lawful": 1983,
      "natur": 1984,
      "seems": 1985,
      "buy": 1986,
      "Both": 1987,
      "valiant": 1988,
      "office": 1989,
      "water": 1990,
      "umph": 1991,
      "Welcome": 1992,
      "George": 1993,
      "GAUNT": 1994,
      "ELBOW": 1995,
      "AM": 1996,
      "Hold": 1997,
      "Ox": 1998,
      "TY": 1999,
      "Tho": 2000,
      "bur": 2001,
      "cked": 2002,
      "ew": 2003,
      "eas": 2004,
      "ima": 2005,
      "pare": 2006,
      "patch": 2007,
      "sk": 2008,
      "watch": 2009,
      "zed": 2010,
      "ancient": 2011,
      "attend": 2012,
      "vel": 2013,
      "hide": 2014,
      "til": 2015,
      "vern": 2016,
      "gest": 2017,
      "case": 2018,
      "speech": 2019,
      "ways": 2020,
      "appro": 2021,
      "didst": 2022,
      "Whom": 2023,
      "gentlemen": 2024,
      "NTAG": 2025,
      "tribunes": 2026,
      "triumph": 2027,
      "begin": 2028,
      "princely": 2029,
      "dread": 2030,
      "faults": 2031,
      "demn": 2032,
      "MONTAG": 2033,
      "bitter": 2034,
      "visit": 2035,
      "flesh": 2036,
      "Oxford": 2037,
      "MONTAGUE": 2038,
      "Ar": 2039,
      "Saint": 2040,
      "TEN": 2041,
      "aid": 2042,
      "aven": 2043,
      "cc": 2044,
      "cli": 2045,
      "ease": 2046,
      "frown": 2047,
      "fond": 2048,
      "ile": 2049,
      "ife": 2050,
      "mour": 2051,
      "pit": 2052,
      "sal": 2053,
      "uct": 2054,
      "inf": 2055,
      "stain": 2056,
      "hemi": 2057,
      "depart": 2058,
      "pey": 2059,
      "feast": 2060,
      "oney": 2061,
      "prin": 2062,
      "trou": 2063,
      "ions": 2064,
      "wash": 2065,
      "thence": 2066,
      "ured": 2067,
      "vile": 2068,
      "sigh": 2069,
      "ANIO": 2070,
      "bawd": 2071,
      "count": 2072,
      "scorn": 2073,
      "cheer": 2074,
      "servant": 2075,
      "merry": 2076,
      "prayers": 2077,
      "slaughter": 2078,
      "deny": 2079,
      "Stand": 2080,
      "Bohemi": 2081,
      "patient": 2082,
      "defend": 2083,
      "umberland": 2084,
      "execution": 2085,
      "TRANIO": 2086,
      "HORTEN": 2087,
      "success": 2088,
      "pretty": 2089,
      "Pompey": 2090,
      "Peace": 2091,
      "Northumberland": 2092,
      "HORTENS": 2093,
      "GIL": 2094,
      "OP": 2095,
      "PERD": 2096,
      "RGIL": 2097,
      "ack": 2098,
      "awhile": 2099,
      "cen": 2100,
      "eth": 2101,
      "ging": 2102,
      "har": 2103,
      "lar": 2104,
      "swi": 2105,
      "soft": 2106,
      "ua": 2107,
      "thither": 2108,
      "ats": 2109,
      "stant": 2110,
      "ley": 2111,
      "widow": 2112,
      "cher": 2113,
      "living": 2114,
      "sol": 2115,
      "tic": 2116,
      "favour": 2117,
      "trumpet": 2118,
      "tear": 2119,
      "coming": 2120,
      "offence": 2121,
      "VIRGIL": 2122,
      "chamber": 2123,
      "presently": 2124,
      "antage": 2125,
      "promise": 2126,
      "small": 2127,
      "dishonour": 2128,
      "Chris": 2129,
      "Yea": 2130,
      "ITA": 2131,
      "Paul": 2132,
      "Bohemia": 2133,
      "HORTENSIO": 2134,
      "PERDITA": 2135,
      "VIRGILIA": 2136,
      "LY": 2137,
      "Swe": 2138,
      "SLY": 2139,
      "Tran": 2140,
      "bor": 2141,
      "fled": 2142,
      "nay": 2143,
      "occ": 2144,
      "sper": 2145,
      "sland": 2146,
      "rever": 2147,
      "irm": 2148,
      "alk": 2149,
      "feit": 2150,
      "mali": 2151,
      "blows": 2152,
      "akes": 2153,
      "worship": 2154,
      "cience": 2155,
      "astard": 2156,
      "offer": 2157,
      "ities": 2158,
      "MARIAN": 2159,
      "ledge": 2160,
      "brace": 2161,
      "drum": 2162,
      "weeping": 2163,
      "Stay": 2164,
      "knee": 2165,
      "greet": 2166,
      "banishment": 2167,
      "soldier": 2168,
      "subjects": 2169,
      "GREMIO": 2170,
      "quickly": 2171,
      "birth": 2172,
      "guilty": 2173,
      "Isabel": 2174,
      "Sweet": 2175,
      "MARIANA": 2176,
      "Bl": 2177,
      "Ex": 2178,
      "PAR": 2179,
      "RA": 2180,
      "Sign": 2181,
      "Watch": 2182,
      "doo": 2183,
      "gent": 2184,
      "ian": 2185,
      "ick": 2186,
      "lish": 2187,
      "sus": 2188,
      "thor": 2189,
      "inno": 2190,
      "stood": 2191,
      "measure": 2192,
      "least": 2193,
      "chang": 2194,
      "assa": 2195,
      "lic": 2196,
      "lip": 2197,
      "almost": 2198,
      "doing": 2199,
      "willing": 2200,
      "condemn": 2201,
      "ustom": 2202,
      "moved": 2203,
      "govern": 2204,
      "shepherd": 2205,
      "perate": 2206,
      "died": 2207,
      "broad": 2208,
      "proceed": 2209,
      "pleas": 2210,
      "fied": 2211,
      "whence": 2212,
      "march": 2213,
      "treason": 2214,
      "guard": 2215,
      "wert": 2216,
      "shows": 2217,
      "sentence": 2218,
      "slew": 2219,
      "fully": 2220,
      "glad": 2221,
      "genet": 2222,
      "English": 2223,
      "prisoner": 2224,
      "position": 2225,
      "deserved": 2226,
      "antagenet": 2227,
      "womb": 2228,
      "cross": 2229,
      "Plantagenet": 2230,
      "natural": 2231,
      "Tranio": 2232,
      "PARIS": 2233,
      "Dis": 2234,
      "Gaunt": 2235,
      "Hark": 2236,
      "Men": 2237,
      "cord": 2238,
      "corn": 2239,
      "citizen": 2240,
      "dar": 2241,
      "evil": 2242,
      "gall": 2243,
      "gard": 2244,
      "mut": 2245,
      "mid": 2246,
      "ping": 2247,
      "ror": 2248,
      "vol": 2249,
      "ines": 2250,
      "encounter": 2251,
      "ators": 2252,
      "stor": 2253,
      "stone": 2254,
      "sters": 2255,
      "noise": 2256,
      "sec": 2257,
      "seal": 2258,
      "sever": 2259,
      "reign": 2260,
      "vey": 2261,
      "beast": 2262,
      "because": 2263,
      "wild": 2264,
      "roo": 2265,
      "forward": 2266,
      "unts": 2267,
      "lock": 2268,
      "Think": 2269,
      "bling": 2270,
      "iles": 2271,
      "worst": 2272,
      "hadst": 2273,
      "dispatch": 2274,
      "sible": 2275,
      "spur": 2276,
      "longer": 2277,
      "beggar": 2278,
      "mild": 2279,
      "Doth": 2280,
      "banished": 2281,
      "pier": 2282,
      "witness": 2283,
      "kneel": 2284,
      "virtuous": 2285,
      "conscience": 2286,
      "letters": 2287,
      "fetch": 2288,
      "ladies": 2289,
      "piece": 2290,
      "victory": 2291,
      "knock": 2292,
      "Signior": 2293,
      "Cates": 2294,
      "DOR": 2295,
      "En": 2296,
      "Earl": 2297,
      "Fri": 2298,
      "Lu": 2299,
      "LAR": 2300,
      "RUCH": 2301,
      "TIUS": 2302,
      "Ver": 2303,
      "WIS": 2304,
      "XI": 2305,
      "ale": 2306,
      "bs": 2307,
      "boo": 2308,
      "cing": 2309,
      "dge": 2310,
      "lp": 2311,
      "port": 2312,
      "ug": 2313,
      "ulet": 2314,
      "uff": 2315,
      "vain": 2316,
      "winter": 2317,
      "erle": 2318,
      "inius": 2319,
      "sto": 2320,
      "llo": 2321,
      "second": 2322,
      "behind": 2323,
      "lease": 2324,
      "sole": 2325,
      "dog": 2326,
      "host": 2327,
      "pest": 2328,
      "ties": 2329,
      "laid": 2330,
      "ider": 2331,
      "wouldst": 2332,
      "shed": 2333,
      "perform": 2334,
      "prosper": 2335,
      "fright": 2336,
      "woes": 2337,
      "speaks": 2338,
      "warm": 2339,
      "bray": 2340,
      "plant": 2341,
      "ignor": 2342,
      "lived": 2343,
      "greater": 2344,
      "pride": 2345,
      "prithee": 2346,
      "Citizens": 2347,
      "lordship": 2348,
      "contin": 2349,
      "steel": 2350,
      "glory": 2351,
      "drink": 2352,
      "knees": 2353,
      "LEWIS": 2354,
      "golden": 2355,
      "Capulet": 2356,
      "PETRUCH": 2357,
      "towards": 2358,
      "Vols": 2359,
      "kinsman": 2360,
      "clouds": 2361,
      "music": 2362,
      "slander": 2363,
      "Watchman": 2364,
      "secret": 2365,
      "Catesby": 2366,
      "LARTIUS": 2367,
      "PETRUCHIO": 2368,
      "Af": 2369,
      "Aum": 2370,
      "Mow": 2371,
      "SAM": 2372,
      "TI": 2373,
      "Too": 2374,
      "aking": 2375,
      "aves": 2376,
      "ben": 2377,
      "bones": 2378,
      "bastard": 2379,
      "cr": 2380,
      "crue": 2381,
      "dle": 2382,
      "dance": 2383,
      "eat": 2384,
      "fat": 2385,
      "fing": 2386,
      "five": 2387,
      "fru": 2388,
      "fought": 2389,
      "gment": 2390,
      "hn": 2391,
      "loo": 2392,
      "mir": 2393,
      "phy": 2394,
      "uri": 2395,
      "uction": 2396,
      "year": 2397,
      "ining": 2398,
      "isure": 2399,
      "tol": 2400,
      "hap": 2401,
      "leisure": 2402,
      "wice": 2403,
      "forbid": 2404,
      "aside": 2405,
      "nder": 2406,
      "deter": 2407,
      "note": 2408,
      "ourselves": 2409,
      "ooth": 2410,
      "urch": 2411,
      "allow": 2412,
      "ung": 2413,
      "few": 2414,
      "manner": 2415,
      "neck": 2416,
      "goodly": 2417,
      "venge": 2418,
      "ular": 2419,
      "ilt": 2420,
      "knowledge": 2421,
      "quite": 2422,
      "sport": 2423,
      "despair": 2424,
      "desperate": 2425,
      "hearing": 2426,
      "exc": 2427,
      "affection": 2428,
      "effect": 2429,
      "ations": 2430,
      "LUCENTIO": 2431,
      "slave": 2432,
      "needs": 2433,
      "quiet": 2434,
      "glass": 2435,
      "drunk": 2436,
      "sense": 2437,
      "wisdom": 2438,
      "John": 2439,
      "PETER": 2440,
      "obey": 2441,
      "wretched": 2442,
      "PSON": 2443,
      "Keeper": 2444,
      "doom": 2445,
      "citizens": 2446,
      "Aumerle": 2447,
      "Mowbray": 2448,
      "SAMPSON": 2449,
      "!--": 2450,
      ":'": 2451,
      ";'": 2452,
      "Apo": 2453,
      "BU": 2454,
      "Bro": 2455,
      "Cor": 2456,
      "EX": 2457,
      "Either": 2458,
      "Fear": 2459,
      "GON": 2460,
      "Mis": 2461,
      "alive": 2462,
      "cried": 2463,
      "due": 2464,
      "dry": 2465,
      "fres": 2466,
      "gir": 2467,
      "grown": 2468,
      "kin": 2469,
      "match": 2470,
      "money": 2471,
      "ny": 2472,
      "por": 2473,
      "rise": 2474,
      "sca": 2475,
      "sort": 2476,
      "yal": 2477,
      "yond": 2478,
      "threat": 2479,
      "eness": 2480,
      "enjoy": 2481,
      "army": 2482,
      "sei": 2483,
      "lect": 2484,
      "hire": 2485,
      "deput": 2486,
      "weary": 2487,
      "ket": 2488,
      "yourselves": 2489,
      "als": 2490,
      "ures": 2491,
      "tide": 2492,
      "lamb": 2493,
      "nest": 2494,
      "moon": 2495,
      "going": 2496,
      "blind": 2497,
      "cians": 2498,
      "early": 2499,
      "proof": 2500,
      "umb": 2501,
      "quit": 2502,
      "ounds": 2503,
      "brothers": 2504,
      "lands": 2505,
      "ANTI": 2506,
      "honours": 2507,
      "honourable": 2508,
      "precious": 2509,
      "flowers": 2510,
      "deadly": 2511,
      "grand": 2512,
      "guess": 2513,
      "cutio": 2514,
      "dreams": 2515,
      "Lewis": 2516,
      "judge": 2517,
      "valour": 2518,
      "author": 2519,
      "damn": 2520,
      "cheeks": 2521,
      "summer": 2522,
      "whether": 2523,
      "Mercutio": 2524,
      "above": 2525,
      "scarce": 2526,
      "liberty": 2527,
      "swift": 2528,
      "cruel": 2529,
      "BURY": 2530,
      "GONUS": 2531,
      "ANTIGONUS": 2532,
      "AS": 2533,
      "Ab": 2534,
      "Bid": 2535,
      "Could": 2536,
      "Fa": 2537,
      "Harry": 2538,
      "Mus": 2539,
      "Mine": 2540,
      "Show": 2541,
      "TCLIFF": 2542,
      "True": 2543,
      "Wor": 2544,
      "abroad": 2545,
      "bend": 2546,
      "dri": 2547,
      "mend": 2548,
      "ners": 2549,
      "ope": 2550,
      "pun": 2551,
      "tune": 2552,
      "ude": 2553,
      "ual": 2554,
      "inj": 2555,
      "inking": 2556,
      "anon": 2557,
      "arch": 2558,
      "seven": 2559,
      "dev": 2560,
      "wed": 2561,
      "rid": 2562,
      "ets": 2563,
      "masters": 2564,
      "loyal": 2565,
      "faint": 2566,
      "labour": 2567,
      "ney": 2568,
      "ament": 2569,
      "among": 2570,
      "conce": 2571,
      "contr": 2572,
      "convey": 2573,
      "table": 2574,
      "teen": 2575,
      "blest": 2576,
      "ult": 2577,
      "blow": 2578,
      "thereof": 2579,
      "provost": 2580,
      "Heaven": 2581,
      "quo": 2582,
      "view": 2583,
      "sim": 2584,
      "spent": 2585,
      "Within": 2586,
      "struck": 2587,
      "others": 2588,
      "angry": 2589,
      "prepar": 2590,
      "party": 2591,
      "sces": 2592,
      "foes": 2593,
      "bears": 2594,
      "flower": 2595,
      "kindred": 2596,
      "subst": 2597,
      "steal": 2598,
      "chase": 2599,
      "understand": 2600,
      "truly": 2601,
      "guest": 2602,
      "double": 2603,
      "month": 2604,
      "possible": 2605,
      "wail": 2606,
      "yea": 2607,
      "orious": 2608,
      "promised": 2609,
      "Cominius": 2610,
      "While": 2611,
      "judgment": 2612,
      "Volsces": 2613,
      "obedi": 2614,
      "wretch": 2615,
      "Poor": 2616,
      "prophe": 2617,
      "choose": 2618,
      "satisfied": 2619,
      "RATCLIFF": 2620,
      "'?": 2621,
      ":--": 2622,
      "BIS": 2623,
      "Barn": 2624,
      "Hear": 2625,
      "HOP": 2626,
      "LEY": 2627,
      "RO": 2628,
      "Rut": 2629,
      "ama": 2630,
      "cir": 2631,
      "custom": 2632,
      "dull": 2633,
      "eed": 2634,
      "fine": 2635,
      "fold": 2636,
      "gage": 2637,
      "ker": 2638,
      "lust": 2639,
      "mal": 2640,
      "moun": 2641,
      "od": 2642,
      "pes": 2643,
      "sour": 2644,
      "swords": 2645,
      "vate": 2646,
      "wake": 2647,
      "thir": 2648,
      "ances": 2649,
      "enes": 2650,
      "envy": 2651,
      "aring": 2652,
      "stars": 2653,
      "stones": 2654,
      "received": 2655,
      "lest": 2656,
      "hie": 2657,
      "rot": 2658,
      "forgot": 2659,
      "asion": 2660,
      "deal": 2661,
      "utter": 2662,
      "eding": 2663,
      "alous": 2664,
      "add": 2665,
      "ads": 2666,
      "arest": 2667,
      "shal": 2668,
      "shake": 2669,
      "supp": 2670,
      "herself": 2671,
      "shri": 2672,
      "tect": 2673,
      "iful": 2674,
      "ility": 2675,
      "cian": 2676,
      "proper": 2677,
      "proclaim": 2678,
      "oler": 2679,
      "fie": 2680,
      "vious": 2681,
      "six": 2682,
      "spake": 2683,
      "els": 2684,
      "ANLEY": 2685,
      "Lords": 2686,
      "tyrant": 2687,
      "orten": 2688,
      "miser": 2689,
      "trial": 2690,
      "UMIO": 2691,
      "tongues": 2692,
      "cles": 2693,
      "bids": 2694,
      "Unto": 2695,
      "kindness": 2696,
      "GRUMIO": 2697,
      "buried": 2698,
      "ioli": 2699,
      "maids": 2700,
      "Once": 2701,
      "STANLEY": 2702,
      "vail": 2703,
      "crave": 2704,
      "corse": 2705,
      "humble": 2706,
      "demand": 2707,
      "question": 2708,
      "honesty": 2709,
      "walls": 2710,
      "Death": 2711,
      "brows": 2712,
      "remain": 2713,
      "white": 2714,
      "spring": 2715,
      "TYBALT": 2716,
      "Thomas": 2717,
      "trouble": 2718,
      "Paulina": 2719,
      "malice": 2720,
      "vengeance": 2721,
      "Corioli": 2722,
      "deputy": 2723,
      "BISHOP": 2724,
      "Rutland": 2725,
      "Am": 2726,
      "Bet": 2727,
      "Des": 2728,
      "GE": 2729,
      "Horten": 2730,
      "Ind": 2731,
      "KEN": 2732,
      "Never": 2733,
      "Put": 2734,
      "Pri": 2735,
      "Som": 2736,
      "Under": 2737,
      "bb": 2738,
      "big": 2739,
      "du": 2740,
      "dust": 2741,
      "hund": 2742,
      "ild": 2743,
      "ni": 2744,
      "rust": 2745,
      "sy": 2746,
      "wof": 2747,
      "wra": 2748,
      "walk": 2749,
      "thro": 2750,
      "anley": 2751,
      "stro": 2752,
      "stoo": 2753,
      "lly": 2754,
      "methinks": 2755,
      "health": 2756,
      "sell": 2757,
      "ref": 2758,
      "ited": 2759,
      "lean": 2760,
      "cease": 2761,
      "former": 2762,
      "church": 2763,
      "lia": 2764,
      "liest": 2765,
      "kept": 2766,
      "ghost": 2767,
      "alter": 2768,
      "fell": 2769,
      "lot": 2770,
      "idle": 2771,
      "ident": 2772,
      "neigh": 2773,
      "taken": 2774,
      "bot": 2775,
      "blush": 2776,
      "sacred": 2777,
      "therein": 2778,
      "ument": 2779,
      "quer": 2780,
      "OMAS": 2781,
      "vices": 2782,
      "sio": 2783,
      "acle": 2784,
      "account": 2785,
      "tyran": 2786,
      "wherefore": 2787,
      "abs": 2788,
      "aff": 2789,
      "affair": 2790,
      "stern": 2791,
      "Anti": 2792,
      "calls": 2793,
      "courage": 2794,
      "tract": 2795,
      "private": 2796,
      "Sirrah": 2797,
      "charity": 2798,
      "charged": 2799,
      "rench": 2800,
      "fellows": 2801,
      "THOMAS": 2802,
      "repent": 2803,
      "temper": 2804,
      "wrongs": 2805,
      "Stanley": 2806,
      "senate": 2807,
      "Prince": 2808,
      "minister": 2809,
      "traitors": 2810,
      "bride": 2811,
      "reasons": 2812,
      "blessed": 2813,
      "gross": 2814,
      "Whilst": 2815,
      "Caius": 2816,
      "plot": 2817,
      "usurp": 2818,
      "blame": 2819,
      "BRAKEN": 2820,
      "creature": 2821,
      "easy": 2822,
      "Friar": 2823,
      "fruit": 2824,
      "excuse": 2825,
      "quoth": 2826,
      "Hortensio": 2827,
      "Somer": 2828,
      "hundred": 2829,
      "BRAKENBURY": 2830,
      "Alack": 2831,
      "DER": 2832,
      "GOR": 2833,
      "MIS": 2834,
      "Made": 2835,
      "OV": 2836,
      "Out": 2837,
      "ONE": 2838,
      "Pardon": 2839,
      "Peter": 2840,
      "Please": 2841,
      "Turn": 2842,
      "bite": 2843,
      "bright": 2844,
      "dur": 2845,
      "dain": 2846,
      "dwell": 2847,
      "drown": 2848,
      "eag": 2849,
      "fran": 2850,
      "gif": 2851,
      "itol": 2852,
      "mn": 2853,
      "ron": 2854,
      "rit": 2855,
      "rum": 2856,
      "sw": 2857,
      "twice": 2858,
      "ume": 2859,
      "vish": 2860,
      "wings": 2861,
      "inous": 2862,
      "oracle": 2863,
      "ens": 2864,
      "enius": 2865,
      "arti": 2866,
      "ated": 2867,
      "ony": 2868,
      "ander": 2869,
      "noon": 2870,
      "nose": 2871,
      "hair": 2872,
      "haps": 2873,
      "leaves": 2874,
      "roth": 2875,
      "room": 2876,
      "delight": 2877,
      "ution": 2878,
      "lix": 2879,
      "weigh": 2880,
      "weeds": 2881,
      "always": 2882,
      "hollow": 2883,
      "tid": 2884,
      "necess": 2885,
      "ardine": 2886,
      "concl": 2887,
      "motion": 2888,
      "modest": 2889,
      "teach": 2890,
      "god": 2891,
      "iff": 2892,
      "safet": 2893,
      "sheep": 2894,
      "perceive": 2895,
      "cial": 2896,
      "sirrah": 2897,
      "broo": 2898,
      "mayor": 2899,
      "plead": 2900,
      "app": 2901,
      "fiery": 2902,
      "vided": 2903,
      "Offi": 2904,
      "wherein": 2905,
      "afford": 2906,
      "imprison": 2907,
      "condition": 2908,
      "chief": 2909,
      "pawn": 2910,
      "holds": 2911,
      "rude": 2912,
      "gives": 2913,
      "pleased": 2914,
      "clock": 2915,
      "remedy": 2916,
      "foolish": 2917,
      "deserve": 2918,
      "wanton": 2919,
      "venture": 2920,
      "forced": 2921,
      "entertain": 2922,
      "GREGOR": 2923,
      "cursed": 2924,
      "silver": 2925,
      "Jove": 2926,
      "Capitol": 2927,
      "Methinks": 2928,
      "TRESS": 2929,
      "ERDONE": 2930,
      "choice": 2931,
      "troth": 2932,
      "ician": 2933,
      "castle": 2934,
      "divine": 2935,
      "violent": 2936,
      "imag": 2937,
      "trumpets": 2938,
      "Menenius": 2939,
      "Verona": 2940,
      "benef": 2941,
      "fatal": 2942,
      "Apollo": 2943,
      "Brother": 2944,
      "fresh": 2945,
      "Faith": 2946,
      "Barnardine": 2947,
      "Indeed": 2948,
      "absence": 2949,
      "Somerset": 2950,
      "DERBY": 2951,
      "MISTRESS": 2952,
      "OVERDONE": 2953,
      "safety": 2954,
      "GREGORY": 2955,
      "?'": 2956,
      "Bi": 2957,
      "CH": 2958,
      "Cousin": 2959,
      "Fl": 2960,
      "FORD": 2961,
      "Great": 2962,
      "Hence": 2963,
      "MON": 2964,
      "OX": 2965,
      "Pet": 2966,
      "RR": 2967,
      "SOM": 2968,
      "Still": 2969,
      "Tut": 2970,
      "VAL": 2971,
      "aught": 2972,
      "ball": 2973,
      "bark": 2974,
      "cup": 2975,
      "fan": 2976,
      "ffi": 2977,
      "fret": 2978,
      "hung": 2979,
      "jour": 2980,
      "lan": 2981,
      "mp": 2982,
      "nine": 2983,
      "number": 2984,
      "pul": 2985,
      "passa": 2986,
      "sme": 2987,
      "sday": 2988,
      "sits": 2989,
      "smile": 2990,
      "whis": 2991,
      "thi": 2992,
      "thunder": 2993,
      "inher": 2994,
      "inion": 2995,
      "incl": 2996,
      "inform": 2997,
      "envious": 2998,
      "arp": 2999,
      "arri": 3000,
      "ating": 3001,
      "onoun": 3002,
      "stat": 3003,
      "llen": 3004,
      "top": 3005,
      "nobles": 3006,
      "sem": 3007,
      "reg": 3008,
      "rew": 3009,
      "reck": 3010,
      "receive": 3011,
      "vell": 3012,
      "wicked": 3013,
      "deem": 3014,
      "deposed": 3015,
      "west": 3016,
      "alas": 3017,
      "ety": 3018,
      "ursday": 3019,
      "door": 3020,
      "loath": 3021,
      "tive": 3022,
      "tial": 3023,
      "fain": 3024,
      "butcher": 3025,
      "constant": 3026,
      "Three": 3027,
      "Thursday": 3028,
      "tres": 3029,
      "ERIA": 3030,
      "complain": 3031,
      "protect": 3032,
      "mayst": 3033,
      "uments": 3034,
      "whole": 3035,
      "qual": 3036,
      "disgrace": 3037,
      "disposition": 3038,
      "RICHMON": 3039,
      "sire": 3040,
      "design": 3041,
      "excell": 3042,
      "bran": 3043,
      "offend": 3044,
      "prevent": 3045,
      "prepare": 3046,
      "Wherein": 3047,
      "emp": 3048,
      "embrace": 3049,
      "names": 3050,
      "inted": 3051,
      "Rivers": 3052,
      "resign": 3053,
      "prayer": 3054,
      "commit": 3055,
      "whither": 3056,
      "whilst": 3057,
      "mione": 3058,
      "tread": 3059,
      "treach": 3060,
      "ruin": 3061,
      "tedious": 3062,
      "fares": 3063,
      "renown": 3064,
      "jealous": 3065,
      "thrust": 3066,
      "follows": 3067,
      "followers": 3068,
      "quire": 3069,
      "carry": 3070,
      "Hermione": 3071,
      "fools": 3072,
      "contented": 3073,
      "officer": 3074,
      "ERSET": 3075,
      "profess": 3076,
      "cries": 3077,
      "belly": 3078,
      "thrive": 3079,
      "mission": 3080,
      "chool": 3081,
      "awake": 3082,
      "cheek": 3083,
      "Grey": 3084,
      "Besides": 3085,
      "hurt": 3086,
      "colour": 3087,
      "Christi": 3088,
      "borne": 3089,
      "changed": 3090,
      "garden": 3091,
      "finger": 3092,
      "physi": 3093,
      "Musician": 3094,
      "devise": 3095,
      "simple": 3096,
      "prepared": 3097,
      "circ": 3098,
      "woful": 3099,
      "affairs": 3100,
      "tidings": 3101,
      "benefit": 3102,
      "Bianca": 3103,
      "OXFORD": 3104,
      "SOMERSET": 3105,
      "VALERIA": 3106,
      "RICHMOND": 3107,
      "Ad": 3108,
      "AMIL": 3109,
      "BUS": 3110,
      "Bap": 3111,
      "Bona": 3112,
      "El": 3113,
      "Gra": 3114,
      "HY": 3115,
      "Has": 3116,
      "LIUS": 3117,
      "Mant": 3118,
      "MAMIL": 3119,
      "Ne": 3120,
      "Res": 3121,
      "SON": 3122,
      "Sici": 3123,
      "Twas": 3124,
      "Wi": 3125,
      "WBRA": 3126,
      "bond": 3127,
      "din": 3128,
      "ding": 3129,
      "eem": 3130,
      "fla": 3131,
      "flight": 3132,
      "flies": 3133,
      "fury": 3134,
      "firm": 3135,
      "hu": 3136,
      "ime": 3137,
      "ial": 3138,
      "ler": 3139,
      "lend": 3140,
      "line": 3141,
      "rent": 3142,
      "san": 3143,
      "sho": 3144,
      "saint": 3145,
      "school": 3146,
      "twixt": 3147,
      "ued": 3148,
      "van": 3149,
      "vantage": 3150,
      "wing": 3151,
      "star": 3152,
      "stab": 3153,
      "mess": 3154,
      "reti": 3155,
      "beard": 3156,
      "belike": 3157,
      "wives": 3158,
      "rock": 3159,
      "ldom": 3160,
      "del": 3161,
      "delay": 3162,
      "utes": 3163,
      "lion": 3164,
      "wealth": 3165,
      "alm": 3166,
      "ado": 3167,
      "adie": 3168,
      "rain": 3169,
      "unning": 3170,
      "until": 3171,
      "fam": 3172,
      "shadow": 3173,
      "sured": 3174,
      "amp": 3175,
      "conj": 3176,
      "conquer": 3177,
      "contract": 3178,
      "shr": 3179,
      "shut": 3180,
      "taste": 3181,
      "kingly": 3182,
      "ify": 3183,
      "ETER": 3184,
      "ctise": 3185,
      "outward": 3186,
      "peril": 3187,
      "broken": 3188,
      "ages": 3189,
      "timely": 3190,
      "quench": 3191,
      "ounty": 3192,
      "ABHOR": 3193,
      "despite": 3194,
      "extre": 3195,
      "exile": 3196,
      "void": 3197,
      "angu": 3198,
      "Mark": 3199,
      "affect": 3200,
      "conduct": 3201,
      "prey": 3202,
      "prevail": 3203,
      "tista": 3204,
      "ughters": 3205,
      "tled": 3206,
      "plague": 3207,
      "emplo": 3208,
      "serves": 3209,
      "paper": 3210,
      "betwixt": 3211,
      "commend": 3212,
      "Dost": 3213,
      "denied": 3214,
      "keeps": 3215,
      "chair": 3216,
      "sorry": 3217,
      "clear": 3218,
      "happiness": 3219,
      "accus": 3220,
      "accuse": 3221,
      "drawn": 3222,
      "witch": 3223,
      "Boy": 3224,
      "crack": 3225,
      "corrup": 3226,
      "wounded": 3227,
      "laugh": 3228,
      "hanging": 3229,
      "humbly": 3230,
      "MOPS": 3231,
      "MOWBRA": 3232,
      "Leave": 3233,
      "penit": 3234,
      "silence": 3235,
      "Having": 3236,
      "resolved": 3237,
      "guilt": 3238,
      "troop": 3239,
      "Polix": 3240,
      "practise": 3241,
      "drop": 3242,
      "wont": 3243,
      "palace": 3244,
      "direct": 3245,
      "dreadful": 3246,
      "Art": 3247,
      "sighs": 3248,
      "occasion": 3249,
      "dares": 3250,
      "several": 3251,
      "root": 3252,
      "ignorant": 3253,
      "After": 3254,
      "EXETER": 3255,
      "girl": 3256,
      "authority": 3257,
      "damned": 3258,
      "punish": 3259,
      "rotten": 3260,
      "wrath": 3261,
      "Officer": 3262,
      "Christian": 3263,
      "BUSHY": 3264,
      "Baptista": 3265,
      "Mantua": 3266,
      "MAMILLIUS": 3267,
      "adieu": 3268,
      "ABHORSON": 3269,
      "employ": 3270,
      "MOPSA": 3271,
      "MOWBRAY": 3272,
      "Polixenes": 3273,
      "Bear": 3274,
      "CY": 3275,
      "French": 3276,
      "Ho": 3277,
      "Know": 3278,
      "PER": 3279,
      "Ret": 3280,
      "SAR": 3281,
      "Two": 3282,
      "Vi": 3283,
      "bas": 3284,
      "cion": 3285,
      "crow": 3286,
      "east": 3287,
      "gon": 3288,
      "gate": 3289,
      "iest": 3290,
      "pure": 3291,
      "pub": 3292,
      "rand": 3293,
      "ray": 3294,
      "rash": 3295,
      "sli": 3296,
      "song": 3297,
      "wood": 3298,
      "wol": 3299,
      "wits": 3300,
      "yonder": 3301,
      "zard": 3302,
      "intell": 3303,
      "ences": 3304,
      "stu": 3305,
      "step": 3306,
      "tomb": 3307,
      "esy": 3308,
      "reed": 3309,
      "reward": 3310,
      "becomes": 3311,
      "beloved": 3312,
      "leep": 3313,
      "legs": 3314,
      "dew": 3315,
      "devo": 3316,
      "deceived": 3317,
      "owe": 3318,
      "wept": 3319,
      "hatred": 3320,
      "ourish": 3321,
      "wither": 3322,
      "thout": 3323,
      "adventure": 3324,
      "usion": 3325,
      "uns": 3326,
      "unnatural": 3327,
      "ARCH": 3328,
      "fee": 3329,
      "hereafter": 3330,
      "faces": 3331,
      "lace": 3332,
      "neg": 3333,
      "sued": 3334,
      "amb": 3335,
      "amen": 3336,
      "ters": 3337,
      "terror": 3338,
      "pronoun": 3339,
      "endure": 3340,
      "ously": 3341,
      "teeth": 3342,
      "goodness": 3343,
      "iffer": 3344,
      "cap": 3345,
      "capt": 3346,
      "persu": 3347,
      "cio": 3348,
      "seeing": 3349,
      "Myself": 3350,
      "atest": 3351,
      "protest": 3352,
      "quaint": 3353,
      "discover": 3354,
      "disdain": 3355,
      "fig": 3356,
      "wot": 3357,
      "hearted": 3358,
      "Into": 3359,
      "express": 3360,
      "naked": 3361,
      "babe": 3362,
      "ursed": 3363,
      "Marshal": 3364,
      "import": 3365,
      "gentlewoman": 3366,
      "ples": 3367,
      "parts": 3368,
      "scene": 3369,
      "folly": 3370,
      "services": 3371,
      "HASAR": 3372,
      "intent": 3373,
      "intend": 3374,
      "pack": 3375,
      "cock": 3376,
      "Thanks": 3377,
      "preser": 3378,
      "dying": 3379,
      "gues": 3380,
      "faced": 3381,
      "partic": 3382,
      "joys": 3383,
      "brain": 3384,
      "giving": 3385,
      "needful": 3386,
      "seeming": 3387,
      "picion": 3388,
      "compan": 3389,
      "compass": 3390,
      "access": 3391,
      "build": 3392,
      "Only": 3393,
      "cares": 3394,
      "senators": 3395,
      "curses": 3396,
      "petition": 3397,
      "green": 3398,
      "humour": 3399,
      "Mayor": 3400,
      "pains": 3401,
      "advise": 3402,
      "advised": 3403,
      "advantage": 3404,
      "wallow": 3405,
      "calm": 3406,
      "leads": 3407,
      "instruct": 3408,
      "shortly": 3409,
      "praise": 3410,
      "griev": 3411,
      "hopes": 3412,
      "remains": 3413,
      "BALTHASAR": 3414,
      "burthen": 3415,
      "mourn": 3416,
      "princes": 3417,
      "large": 3418,
      "boot": 3419,
      "solemn": 3420,
      "determin": 3421,
      "threaten": 3422,
      "contrary": 3423,
      "miserable": 3424,
      "throat": 3425,
      "Petru": 3426,
      "excellent": 3427,
      "Without": 3428,
      "PERCY": 3429,
      "public": 3430,
      "AE": 3431,
      "Co": 3432,
      "Di": 3433,
      "Dor": 3434,
      "Dear": 3435,
      "FOL": 3436,
      "Fie": 3437,
      "Might": 3438,
      "Page": 3439,
      "Post": 3440,
      "Rep": 3441,
      "SS": 3442,
      "Sold": 3443,
      "Tit": 3444,
      "aim": 3445,
      "bare": 3446,
      "cat": 3447,
      "cend": 3448,
      "cate": 3449,
      "cunning": 3450,
      "dit": 3451,
      "dag": 3452,
      "dows": 3453,
      "ek": 3454,
      "ele": 3455,
      "fle": 3456,
      "fare": 3457,
      "gy": 3458,
      "gree": 3459,
      "hit": 3460,
      "hors": 3461,
      "ience": 3462,
      "kna": 3463,
      "knight": 3464,
      "luck": 3465,
      "mere": 3466,
      "mul": 3467,
      "mity": 3468,
      "murderer": 3469,
      "pin": 3470,
      "pent": 3471,
      "purse": 3472,
      "rt": 3473,
      "rate": 3474,
      "round": 3475,
      "sins": 3476,
      "slay": 3477,
      "scept": 3478,
      "swallow": 3479,
      "tort": 3480,
      "uary": 3481,
      "vouch": 3482,
      "wine": 3483,
      "wander": 3484,
      "yard": 3485,
      "thorn": 3486,
      "inst": 3487,
      "incre": 3488,
      "instant": 3489,
      "ories": 3490,
      "ises": 3491,
      "ishop": 3492,
      "attempt": 3493,
      "stol": 3494,
      "stret": 3495,
      "medi": 3496,
      "seas": 3497,
      "sequ": 3498,
      "repe": 3499,
      "revol": 3500,
      "realm": 3501,
      "vex": 3502,
      "vest": 3503,
      "behalf": 3504,
      "cei": 3505,
      "rose": 3506,
      "degree": 3507,
      "weight": 3508,
      "weap": 3509,
      "key": 3510,
      "advers": 3511,
      "uses": 3512,
      "raw": 3513,
      "raise": 3514,
      "unless": 3515,
      "untimely": 3516,
      "manners": 3517,
      "fail": 3518,
      "faction": 3519,
      "lain": 3520,
      "sues": 3521,
      "suck": 3522,
      "suffi": 3523,
      "shore": 3524,
      "ouses": 3525,
      "comest": 3526,
      "venom": 3527,
      "boar": 3528,
      "bodies": 3529,
      "iling": 3530,
      "sail": 3531,
      "perpet": 3532,
      "perfect": 3533,
      "theirs": 3534,
      "dign": 3535,
      "comfor": 3536,
      "comple": 3537,
      "earnest": 3538,
      "umble": 3539,
      "Help": 3540,
      "sometime": 3541,
      "sometimes": 3542,
      "appre": 3543,
      "dist": 3544,
      "CAS": 3545,
      "fix": 3546,
      "fathers": 3547,
      "spend": 3548,
      "Believe": 3549,
      "market": 3550,
      "bred": 3551,
      "expect": 3552,
      "absent": 3553,
      "March": 3554,
      "standing": 3555,
      "chio": 3556,
      "chide": 3557,
      "scope": 3558,
      "misery": 3559,
      "armour": 3560,
      "fortunes": 3561,
      "opinion": 3562,
      "merit": 3563,
      "write": 3564,
      "trick": 3565,
      "daughters": 3566,
      "begins": 3567,
      "engthen": 3568,
      "parent": 3569,
      "joyful": 3570,
      "undertake": 3571,
      "lasting": 3572,
      "glorious": 3573,
      "boys": 3574,
      "accord": 3575,
      "patri": 3576,
      "welve": 3577,
      "hateful": 3578,
      "NORFOL": 3579,
      "deserves": 3580,
      "spoken": 3581,
      "commanded": 3582,
      "courtesy": 3583,
      "groan": 3584,
      "destroy": 3585,
      "granted": 3586,
      "Came": 3587,
      "feeling": 3588,
      "resolve": 3589,
      "drops": 3590,
      "credit": 3591,
      "dding": 3592,
      "Beseech": 3593,
      "frame": 3594,
      "knave": 3595,
      "colours": 3596,
      "piteous": 3597,
      "respected": 3598,
      "sky": 3599,
      "approach": 3600,
      "drums": 3601,
      "Exeter": 3602,
      "suspect": 3603,
      "suspicion": 3604,
      "innocent": 3605,
      "government": 3606,
      "storm": 3607,
      "DORCAS": 3608,
      "Lucio": 3609,
      "continue": 3610,
      "Volsce": 3611,
      "urious": 3612,
      "seize": 3613,
      "ROSS": 3614,
      "Prithee": 3615,
      "passage": 3616,
      "thief": 3617,
      "empty": 3618,
      "circum": 3619,
      "Sicilia": 3620,
      "sanct": 3621,
      "captain": 3622,
      "particular": 3623,
      "Petruchio": 3624,
      "Dorset": 3625,
      "sceptre": 3626,
      "increase": 3627,
      "NORFOLK": 3628,
      "?--": 3629,
      "Ac": 3630,
      "Amen": 3631,
      "ATH": 3632,
      "Bre": 3633,
      "Four": 3634,
      "Froth": 3635,
      "GH": 3636,
      "Ghost": 3637,
      "Hunts": 3638,
      "Ire": 3639,
      "Just": 3640,
      "KATH": 3641,
      "La": 3642,
      "None": 3643,
      "Pad": 3644,
      "Rat": 3645,
      "Sal": 3646,
      "Sup": 3647,
      "SET": 3648,
      "Save": 3649,
      "Stri": 3650,
      "Very": 3651,
      "Whither": 3652,
      "Wilt": 3653,
      "ald": 3654,
      "ago": 3655,
      "alike": 3656,
      "avoid": 3657,
      "cise": 3658,
      "fif": 3659,
      "hoo": 3660,
      "hark": 3661,
      "hunt": 3662,
      "houses": 3663,
      "ix": 3664,
      "irest": 3665,
      "lis": 3666,
      "langu": 3667,
      "mur": 3668,
      "mbr": 3669,
      "net": 3670,
      "nought": 3671,
      "pir": 3672,
      "ption": 3673,
      "powers": 3674,
      "ress": 3675,
      "sl": 3676,
      "sain": 3677,
      "sion": 3678,
      "swell": 3679,
      "slow": 3680,
      "slip": 3681,
      "ton": 3682,
      "twelve": 3683,
      "vows": 3684,
      "vours": 3685,
      "wench": 3686,
      "yo": 3687,
      "infect": 3688,
      "enforce": 3689,
      "enmity": 3690,
      "ature": 3691,
      "store": 3692,
      "story": 3693,
      "melt": 3694,
      "member": 3695,
      "nobl": 3696,
      "season": 3697,
      "rey": 3698,
      "rebel": 3699,
      "repair": 3700,
      "rebell": 3701,
      "bethink": 3702,
      "beheld": 3703,
      "beyond": 3704,
      "hid": 3705,
      "forsworn": 3706,
      "assured": 3707,
      "dep": 3708,
      "debt": 3709,
      "liar": 3710,
      "limb": 3711,
      "liament": 3712,
      "ride": 3713,
      "adver": 3714,
      "advice": 3715,
      "urged": 3716,
      "alli": 3717,
      "soever": 3718,
      "unjust": 3719,
      "unknown": 3720,
      "peers": 3721,
      "ARINA": 3722,
      "lod": 3723,
      "locks": 3724,
      "tied": 3725,
      "tily": 3726,
      "fame": 3727,
      "contempt": 3728,
      "arts": 3729,
      "shine": 3730,
      "ants": 3731,
      "outs": 3732,
      "perj": 3733,
      "perforce": 3734,
      "lets": 3735,
      "dile": 3736,
      "saying": 3737,
      "commission": 3738,
      "aged": 3739,
      "ague": 3740,
      "likely": 3741,
      "procla": 3742,
      "wholes": 3743,
      "Nothing": 3744,
      "muster": 3745,
      "shouldst": 3746,
      "apt": 3747,
      "appoint": 3748,
      "vide": 3749,
      "anced": 3750,
      "spare": 3751,
      "spite": 3752,
      "accept": 3753,
      "heavi": 3754,
      "exam": 3755,
      "friendly": 3756,
      "county": 3757,
      "counten": 3758,
      "warlike": 3759,
      "whereof": 3760,
      "absol": 3761,
      "brings": 3762,
      "fairly": 3763,
      "bearing": 3764,
      "flow": 3765,
      "called": 3766,
      "intain": 3767,
      "oppos": 3768,
      "undone": 3769,
      "assist": 3770,
      "puts": 3771,
      "daily": 3772,
      "trade": 3773,
      "priest": 3774,
      "prize": 3775,
      "privile": 3776,
      "begg": 3777,
      "trees": 3778,
      "ruth": 3779,
      "rule": 3780,
      "ruly": 3781,
      "parliament": 3782,
      "Until": 3783,
      "farther": 3784,
      "jewel": 3785,
      "confer": 3786,
      "finds": 3787,
      "meaning": 3788,
      "accused": 3789,
      "carried": 3790,
      "ships": 3791,
      "shield": 3792,
      "current": 3793,
      "elder": 3794,
      "monstr": 3795,
      "remembr": 3796,
      "vault": 3797,
      "spirits": 3798,
      "Rosal": 3799,
      "freely": 3800,
      "smiles": 3801,
      "smooth": 3802,
      "Conspir": 3803,
      "GREEN": 3804,
      "painted": 3805,
      "grows": 3806,
      "hardly": 3807,
      "consider": 3808,
      "silent": 3809,
      "uteous": 3810,
      "waters": 3811,
      "counterfeit": 3812,
      "profan": 3813,
      "instruction": 3814,
      "instruments": 3815,
      "resolution": 3816,
      "Romans": 3817,
      "Pomfret": 3818,
      "centio": 3819,
      "grieve": 3820,
      "waste": 3821,
      "strew": 3822,
      "streets": 3823,
      "knife": 3824,
      "TYRR": 3825,
      "Those": 3826,
      "cliff": 3827,
      "princess": 3828,
      "reverence": 3829,
      "willingly": 3830,
      "pleasing": 3831,
      "DORSET": 3832,
      "prosperous": 3833,
      "looking": 3834,
      "About": 3835,
      "Worthy": 3836,
      "obedience": 3837,
      "odds": 3838,
      "stoop": 3839,
      "affli": 3840,
      "brook": 3841,
      "imprisonment": 3842,
      "whisper": 3843,
      "protector": 3844,
      "committed": 3845,
      "treacher": 3846,
      "human": 3847,
      "messenger": 3848,
      "grievous": 3849,
      "AEdile": 3850,
      "Soldier": 3851,
      "Titus": 3852,
      "dagger": 3853,
      "perpetual": 3854,
      "according": 3855,
      "sanctuary": 3856,
      "Huntsman": 3857,
      "Ireland": 3858,
      "KATHARINA": 3859,
      "Padua": 3860,
      "Ratcliff": 3861,
      "wholesome": 3862,
      "Rosaline": 3863,
      "TYRREL": 3864,
      "Ap": 3865,
      "Ben": 3866,
      "Bus": 3867,
      "Bra": 3868,
      "Bring": 3869,
      "Der": 3870,
      "Down": 3871,
      "Fe": 3872,
      "Fare": 3873,
      "Gi": 3874,
      "Long": 3875,
      "Makes": 3876,
      "OTH": 3877,
      "Pat": 3878,
      "Play": 3879,
      "Right": 3880,
      "Rather": 3881,
      "Son": 3882,
      "Set": 3883,
      "Tar": 3884,
      "Wo": 3885,
      "ah": 3886,
      "bon": 3887,
      "bours": 3888,
      "cere": 3889,
      "cus": 3890,
      "cti": 3891,
      "chast": 3892,
      "catch": 3893,
      "differ": 3894,
      "eve": 3895,
      "equal": 3896,
      "fy": 3897,
      "fun": 3898,
      "furn": 3899,
      "fires": 3900,
      "gg": 3901,
      "gin": 3902,
      "lour": 3903,
      "lent": 3904,
      "lark": 3905,
      "loud": 3906,
      "length": 3907,
      "mand": 3908,
      "mill": 3909,
      "nal": 3910,
      "nap": 3911,
      "oak": 3912,
      "ointed": 3913,
      "path": 3914,
      "pil": 3915,
      "ras": 3916,
      "rare": 3917,
      "rend": 3918,
      "rrel": 3919,
      "snow": 3920,
      "south": 3921,
      "sooth": 3922,
      "tut": 3923,
      "tree": 3924,
      "wond": 3925,
      "wakes": 3926,
      "erce": 3927,
      "incen": 3928,
      "ortion": 3929,
      "isle": 3930,
      "isbury": 3931,
      "enant": 3932,
      "enna": 3933,
      "aries": 3934,
      "ont": 3935,
      "stout": 3936,
      "stable": 3937,
      "stuff": 3938,
      "melan": 3939,
      "esar": 3940,
      "esca": 3941,
      "youn": 3942,
      "nobly": 3943,
      "sets": 3944,
      "habit": 3945,
      "recon": 3946,
      "remor": 3947,
      "rejo": 3948,
      "remove": 3949,
      "redeem": 3950,
      "veins": 3951,
      "ites": 3952,
      "betr": 3953,
      "betimes": 3954,
      "hion": 3955,
      "hill": 3956,
      "myster": 3957,
      "ceit": 3958,
      "rob": 3959,
      "roar": 3960,
      "rogue": 3961,
      "forgive": 3962,
      "forbear": 3963,
      "forfeit": 3964,
      "asleep": 3965,
      "detest": 3966,
      "owl": 3967,
      "utenant": 3968,
      "liken": 3969,
      "keeper": 3970,
      "eder": 3971,
      "oose": 3972,
      "ries": 3973,
      "ripe": 3974,
      "although": 3975,
      "alack": 3976,
      "ades": 3977,
      "ARL": 3978,
      "mage": 3979,
      "making": 3980,
      "maintain": 3981,
      "tier": 3982,
      "fact": 3983,
      "fairest": 3984,
      "shape": 3985,
      "idence": 3986,
      "ams": 3987,
      "terms": 3988,
      "shun": 3989,
      "sharp": 3990,
      "tap": 3991,
      "taking": 3992,
      "tail": 3993,
      "takes": 3994,
      "perish": 3995,
      "wore": 3996,
      "civil": 3997,
      "dim": 3998,
      "seest": 3999,
      "special": 4000,
      "provo": 4001,
      "graves": 4002,
      "Young": 4003,
      "appet": 4004,
      "appare": 4005,
      "apparent": 4006,
      "disper": 4007,
      "spit": 4008,
      "estate": 4009,
      "achie": 4010,
      "desires": 4011,
      "extrem": 4012,
      "counc": 4013,
      "tells": 4014,
      "ably": 4015,
      "abhor": 4016,
      "Marian": 4017,
      "fears": 4018,
      "partly": 4019,
      "scal": 4020,
      "score": 4021,
      "mistake": 4022,
      "flood": 4023,
      "served": 4024,
      "merri": 4025,
      "north": 4026,
      "wrought": 4027,
      "grat": 4028,
      "ullus": 4029,
      "cot": 4030,
      "putation": 4031,
      "longs": 4032,
      "whip": 4033,
      "whiles": 4034,
      "mio": 4035,
      "tended": 4036,
      "treasure": 4037,
      "ruled": 4038,
      "kindly": 4039,
      "powerful": 4040,
      "helm": 4041,
      "charac": 4042,
      "slept": 4043,
      "native": 4044,
      "stead": 4045,
      "afternoon": 4046,
      "maiden": 4047,
      "weeps": 4048,
      "cern": 4049,
      "meeting": 4050,
      "passing": 4051,
      "passion": 4052,
      "Tyrrel": 4053,
      "turns": 4054,
      "greatest": 4055,
      "soundly": 4056,
      "revenged": 4057,
      "wait": 4058,
      "waking": 4059,
      "desert": 4060,
      "corre": 4061,
      "Gentlemen": 4062,
      "sends": 4063,
      "commons": 4064,
      "hanged": 4065,
      "Cannot": 4066,
      "faithful": 4067,
      "Commend": 4068,
      "single": 4069,
      "voided": 4070,
      "defence": 4071,
      "heirs": 4072,
      "pression": 4073,
      "bird": 4074,
      "Caesar": 4075,
      "augh": 4076,
      "choly": 4077,
      "supper": 4078,
      "supposed": 4079,
      "sickness": 4080,
      "proportion": 4081,
      "thrice": 4082,
      "breathed": 4083,
      "Love": 4084,
      "Keep": 4085,
      "ifest": 4086,
      "reverend": 4087,
      "gently": 4088,
      "pleasant": 4089,
      "cords": 4090,
      "haply": 4091,
      "Mistress": 4092,
      "third": 4093,
      "neighbour": 4094,
      "tyranny": 4095,
      "durst": 4096,
      "gift": 4097,
      "ballad": 4098,
      "journey": 4099,
      "smell": 4100,
      "regal": 4101,
      "dinner": 4102,
      "stabb": 4103,
      "penitent": 4104,
      "Vienna": 4105,
      "intellig": 4106,
      "devotion": 4107,
      "determined": 4108,
      "horses": 4109,
      "patricians": 4110,
      "Fourth": 4111,
      "Salisbury": 4112,
      "murd": 4113,
      "yoke": 4114,
      "rebellion": 4115,
      "alliance": 4116,
      "monstrous": 4117,
      "remembrance": 4118,
      "treacherous": 4119,
      "Derby": 4120,
      "pilgri": 4121,
      "rascal": 4122,
      "melancholy": 4123,
      "reconci": 4124,
      "betray": 4125,
      "appetite": 4126,
      "Ber": 4127,
      "Cour": 4128,
      "Cry": 4129,
      "County": 4130,
      "Draw": 4131,
      "EOM": 4132,
      "Each": 4133,
      "Father": 4134,
      "Get": 4135,
      "Grum": 4136,
      "Happ": 4137,
      "Im": 4138,
      "Jes": 4139,
      "Lay": 4140,
      "Larti": 4141,
      "Many": 4142,
      "Six": 4143,
      "Tri": 4144,
      "Tush": 4145,
      "Time": 4146,
      "Tullus": 4147,
      "UGH": 4148,
      "Whe": 4149,
      "WIL": 4150,
      "ax": 4151,
      "avoided": 4152,
      "bag": 4153,
      "bation": 4154,
      "block": 4155,
      "bility": 4156,
      "cou": 4157,
      "cul": 4158,
      "fas": 4159,
      "fits": 4160,
      "goose": 4161,
      "iam": 4162,
      "iment": 4163,
      "iled": 4164,
      "len": 4165,
      "list": 4166,
      "nes": 4167,
      "odd": 4168,
      "pound": 4169,
      "rous": 4170,
      "sway": 4171,
      "sore": 4172,
      "tw": 4173,
      "tles": 4174,
      "task": 4175,
      "var": 4176,
      "wag": 4177,
      "yes": 4178,
      "ino": 4179,
      "iny": 4180,
      "ination": 4181,
      "infection": 4182,
      "anointed": 4183,
      "thecar": 4184,
      "onation": 4185,
      "mew": 4186,
      "meat": 4187,
      "meant": 4188,
      "toad": 4189,
      "andal": 4190,
      "hest": 4191,
      "heed": 4192,
      "secure": 4193,
      "sepul": 4194,
      "rear": 4195,
      "requ": 4196,
      "reap": 4197,
      "rewd": 4198,
      "recei": 4199,
      "belie": 4200,
      "league": 4201,
      "iron": 4202,
      "dec": 4203,
      "decl": 4204,
      "deceit": 4205,
      "limit": 4206,
      "hated": 4207,
      "edge": 4208,
      "oot": 4209,
      "withdraw": 4210,
      "alms": 4211,
      "admit": 4212,
      "urge": 4213,
      "raised": 4214,
      "soci": 4215,
      "holp": 4216,
      "unhappy": 4217,
      "uncles": 4218,
      "peer": 4219,
      "fest": 4220,
      "feet": 4221,
      "male": 4222,
      "lots": 4223,
      "manifest": 4224,
      "fawn": 4225,
      "shadows": 4226,
      "amity": 4227,
      "aments": 4228,
      "hers": 4229,
      "morn": 4230,
      "shrewd": 4231,
      "seless": 4232,
      "moves": 4233,
      "taught": 4234,
      "teous": 4235,
      "ified": 4236,
      "bleeding": 4237,
      "blown": 4238,
      "caught": 4239,
      "selfsame": 4240,
      "perhaps": 4241,
      "foreign": 4242,
      "agree": 4243,
      "provided": 4244,
      "qua": 4245,
      "Noble": 4246,
      "LOUGH": 4247,
      "shoulder": 4248,
      "tooth": 4249,
      "deaths": 4250,
      "disease": 4251,
      "dissol": 4252,
      "dismal": 4253,
      "dissem": 4254,
      "fierce": 4255,
      "spy": 4256,
      "estim": 4257,
      "aches": 4258,
      "acquaint": 4259,
      "descent": 4260,
      "exer": 4261,
      "struction": 4262,
      "lesser": 4263,
      "bade": 4264,
      "babes": 4265,
      "IST": 4266,
      "warn": 4267,
      "warri": 4268,
      "abide": 4269,
      "offended": 4270,
      "fairer": 4271,
      "hasty": 4272,
      "parting": 4273,
      "parted": 4274,
      "scold": 4275,
      "mistrust": 4276,
      "embra": 4277,
      "jot": 4278,
      "joint": 4279,
      "greatness": 4280,
      "Anon": 4281,
      "redress": 4282,
      "paid": 4283,
      "wrink": 4284,
      "settled": 4285,
      "cost": 4286,
      "prick": 4287,
      "begu": 4288,
      "began": 4289,
      "begun": 4290,
      "rights": 4291,
      "CLEOM": 4292,
      "laws": 4293,
      "braw": 4294,
      "dukedom": 4295,
      "Uncle": 4296,
      "purchase": 4297,
      "slaves": 4298,
      "dearly": 4299,
      "William": 4300,
      "beseem": 4301,
      "steeds": 4302,
      "tainted": 4303,
      "garland": 4304,
      "rank": 4305,
      "minds": 4306,
      "camest": 4307,
      "accident": 4308,
      "accursed": 4309,
      "dress": 4310,
      "tempest": 4311,
      "clothe": 4312,
      "sorrows": 4313,
      "FROTH": 4314,
      "virgin": 4315,
      "curst": 4316,
      "griefs": 4317,
      "grey": 4318,
      "countrymen": 4319,
      "sovereignty": 4320,
      "falsehood": 4321,
      "craft": 4322,
      "irect": 4323,
      "posing": 4324,
      "sleeping": 4325,
      "wants": 4326,
      "virtues": 4327,
      "appeal": 4328,
      "winds": 4329,
      "windows": 4330,
      "oaths": 4331,
      "sights": 4332,
      "plainly": 4333,
      "visage": 4334,
      "Remember": 4335,
      "trusty": 4336,
      "growing": 4337,
      "groans": 4338,
      "object": 4339,
      "executed": 4340,
      "Mean": 4341,
      "Hail": 4342,
      "beholding": 4343,
      "darest": 4344,
      "succeed": 4345,
      "burning": 4346,
      "fourteen": 4347,
      "Perdit": 4348,
      "mouths": 4349,
      "Gremio": 4350,
      "pieces": 4351,
      "frail": 4352,
      "torment": 4353,
      "direction": 4354,
      "stopp": 4355,
      "actions": 4356,
      "trembling": 4357,
      "image": 4358,
      "triumphant": 4359,
      "frowns": 4360,
      "pitch": 4361,
      "infant": 4362,
      "executioner": 4363,
      "occup": 4364,
      "innoc": 4365,
      "gallant": 4366,
      "beasts": 4367,
      "pierce": 4368,
      "Lucentio": 4369,
      "stock": 4370,
      "ignorance": 4371,
      "mirth": 4372,
      "uries": 4373,
      "determine": 4374,
      "affections": 4375,
      "substit": 4376,
      "obedient": 4377,
      "prophet": 4378,
      "amazed": 4379,
      "waked": 4380,
      "thirty": 4381,
      "stroke": 4382,
      "strokes": 4383,
      "refuse": 4384,
      "eagle": 4385,
      "fancy": 4386,
      "hungry": 4387,
      "inherit": 4388,
      "trespass": 4389,
      "renowned": 4390,
      "retire": 4391,
      "famous": 4392,
      "extreme": 4393,
      "Return": 4394,
      "wolf": 4395,
      "stretch": 4396,
      "repeal": 4397,
      "adversaries": 4398,
      "dignity": 4399,
      "complex": 4400,
      "circumst": 4401,
      "Laur": 4402,
      "language": 4403,
      "proclam": 4404,
      "absolute": 4405,
      "opposite": 4406,
      "privilege": 4407,
      "conference": 4408,
      "Conspirator": 4409,
      "Bushy": 4410,
      "ceremon": 4411,
      "youngest": 4412,
      "remorse": 4413,
      "mystery": 4414,
      "apparel": 4415,
      "Mariana": 4416,
      "Grumio": 4417,
      "Lartius": 4418,
      "Whether": 4419,
      "WILLOUGH": 4420,
      "axe": 4421,
      "thecary": 4422,
      "sepulch": 4423,
      "CLEOMENES": 4424,
      "Perdita": 4425,
      "WILLOUGHBY": 4426,
      ".--": 4427,
      "Ano": 4428,
      "Bur": 4429,
      "BAR": 4430,
      "Cast": 4431,
      "Ely": 4432,
      "Escal": 4433,
      "Fo": 4434,
      "Fal": 4435,
      "Find": 4436,
      "Fair": 4437,
      "Ga": 4438,
      "Gu": 4439,
      "Him": 4440,
      "Jack": 4441,
      "Kath": 4442,
      "Lie": 4443,
      "MOR": 4444,
      "Making": 4445,
      "NARD": 4446,
      "Oh": 4447,
      "Qu": 4448,
      "Que": 4449,
      "RUT": 4450,
      "Sur": 4451,
      "Sound": 4452,
      "Vir": 4453,
      "Vill": 4454,
      "Vaugh": 4455,
      "Wed": 4456,
      "Wil": 4457,
      "Wife": 4458,
      "apo": 4459,
      "aded": 4460,
      "ables": 4461,
      "bble": 4462,
      "buck": 4463,
      "cas": 4464,
      "cue": 4465,
      "cers": 4466,
      "coff": 4467,
      "chaste": 4468,
      "date": 4469,
      "ev": 4470,
      "event": 4471,
      "fro": 4472,
      "fish": 4473,
      "freed": 4474,
      "hare": 4475,
      "horn": 4476,
      "hrew": 4477,
      "ict": 4478,
      "ices": 4479,
      "iety": 4480,
      "knot": 4481,
      "lur": 4482,
      "lengthen": 4483,
      "mood": 4484,
      "nup": 4485,
      "nice": 4486,
      "numb": 4487,
      "ph": 4488,
      "phe": 4489,
      "pom": 4490,
      "page": 4491,
      "pised": 4492,
      "rouse": 4493,
      "smo": 4494,
      "sink": 4495,
      "sple": 4496,
      "swer": 4497,
      "sought": 4498,
      "tall": 4499,
      "twill": 4500,
      "tard": 4501,
      "tarry": 4502,
      "uce": 4503,
      "yon": 4504,
      "zel": 4505,
      "thre": 4506,
      "thrown": 4507,
      "thumb": 4508,
      "thinking": 4509,
      "inte": 4510,
      "ints": 4511,
      "anch": 4512,
      "ency": 4513,
      "enches": 4514,
      "arrest": 4515,
      "arina": 4516,
      "ative": 4517,
      "stic": 4518,
      "stamp": 4519,
      "stumble": 4520,
      "lling": 4521,
      "tom": 4522,
      "heat": 4523,
      "heap": 4524,
      "heels": 4525,
      "nobility": 4526,
      "sees": 4527,
      "secre": 4528,
      "seldom": 4529,
      "hall": 4530,
      "havi": 4531,
      "haught": 4532,
      "hazard": 4533,
      "reach": 4534,
      "repose": 4535,
      "recomp": 4536,
      "removed": 4537,
      "record": 4538,
      "reputation": 4539,
      "vet": 4540,
      "itch": 4541,
      "itiff": 4542,
      "befall": 4543,
      "wide": 4544,
      "roll": 4545,
      "forswear": 4546,
      "choler": 4547,
      "deaf": 4548,
      "dearest": 4549,
      "livery": 4550,
      "licy": 4551,
      "weather": 4552,
      "wedding": 4553,
      "kest": 4554,
      "keley": 4555,
      "thern": 4556,
      "ushes": 4557,
      "INE": 4558,
      "rail": 4559,
      "rapier": 4560,
      "lying": 4561,
      "soil": 4562,
      "hoar": 4563,
      "unate": 4564,
      "unken": 4565,
      "unfold": 4566,
      "pee": 4567,
      "pear": 4568,
      "feign": 4569,
      "felt": 4570,
      "feather": 4571,
      "main": 4572,
      "load": 4573,
      "lover": 4574,
      "tie": 4575,
      "tiest": 4576,
      "tired": 4577,
      "manage": 4578,
      "shapes": 4579,
      "lap": 4580,
      "wills": 4581,
      "suing": 4582,
      "super": 4583,
      "sult": 4584,
      "herd": 4585,
      "term": 4586,
      "Through": 4587,
      "shallow": 4588,
      "upright": 4589,
      "poster": 4590,
      "points": 4591,
      "policy": 4592,
      "illy": 4593,
      "boast": 4594,
      "ongst": 4595,
      "sacri": 4596,
      "caitiff": 4597,
      "lovest": 4598,
      "ived": 4599,
      "perni": 4600,
      "worm": 4601,
      "cies": 4602,
      "sirs": 4603,
      "ately": 4604,
      "proved": 4605,
      "process": 4606,
      "umbling": 4607,
      "grain": 4608,
      "discourse": 4609,
      "dismiss": 4610,
      "spread": 4611,
      "Behold": 4612,
      "descend": 4613,
      "heartily": 4614,
      "marks": 4615,
      "breed": 4616,
      "bread": 4617,
      "exchange": 4618,
      "voli": 4619,
      "counted": 4620,
      "tshire": 4621,
      "abuse": 4622,
      "abused": 4623,
      "newly": 4624,
      "bru": 4625,
      "Whereto": 4626,
      "scatter": 4627,
      "mischance": 4628,
      "itious": 4629,
      "bert": 4630,
      "flat": 4631,
      "flourish": 4632,
      "Anne": 4633,
      "graced": 4634,
      "pause": 4635,
      "gress": 4636,
      "sweeter": 4637,
      "restra": 4638,
      "coat": 4639,
      "putting": 4640,
      "childish": 4641,
      "train": 4642,
      "price": 4643,
      "Does": 4644,
      "lightning": 4645,
      "angel": 4646,
      "Prove": 4647,
      "bank": 4648,
      "bands": 4649,
      "madness": 4650,
      "fardel": 4651,
      "gic": 4652,
      "earthly": 4653,
      "challen": 4654,
      "falling": 4655,
      "confirm": 4656,
      "garments": 4657,
      "quired": 4658,
      "drunken": 4659,
      "doub": 4660,
      "closed": 4661,
      "senseless": 4662,
      "monument": 4663,
      "bush": 4664,
      "craves": 4665,
      "breathing": 4666,
      "coronation": 4667,
      "wanting": 4668,
      "mbers": 4669,
      "zeal": 4670,
      "thankful": 4671,
      "spoil": 4672,
      "Shore": 4673,
      "careless": 4674,
      "Although": 4675,
      "officers": 4676,
      "yielded": 4677,
      "hangs": 4678,
      "IDAM": 4679,
      "beauteous": 4680,
      "Leont": 4681,
      "suitors": 4682,
      "Didst": 4683,
      "consort": 4684,
      "Hadst": 4685,
      "below": 4686,
      "gaze": 4687,
      "execute": 4688,
      "stronger": 4689,
      "birds": 4690,
      "acts": 4691,
      "profit": 4692,
      "chosen": 4693,
      "burns": 4694,
      "icians": 4695,
      "praises": 4696,
      "covert": 4697,
      "barren": 4698,
      "Green": 4699,
      "joints": 4700,
      "writing": 4701,
      "written": 4702,
      "whit": 4703,
      "satisfy": 4704,
      "torch": 4705,
      "torney": 4706,
      "aboard": 4707,
      "weakness": 4708,
      "rupt": 4709,
      "blessing": 4710,
      "violence": 4711,
      "tremble": 4712,
      "bitterly": 4713,
      "pitiful": 4714,
      "servants": 4715,
      "censure": 4716,
      "cherish": 4717,
      "boots": 4718,
      "scape": 4719,
      "lected": 4720,
      "conceit": 4721,
      "conceal": 4722,
      "substance": 4723,
      "months": 4724,
      "shrift": 4725,
      "Better": 4726,
      "churchyard": 4727,
      "tyrann": 4728,
      "necessity": 4729,
      "modesty": 4730,
      "imagine": 4731,
      "statue": 4732,
      "Elbow": 4733,
      "Grace": 4734,
      "conjure": 4735,
      "study": 4736,
      "ARCHIDAM": 4737,
      "pronounce": 4738,
      "figure": 4739,
      "companion": 4740,
      "multit": 4741,
      "torture": 4742,
      "Justice": 4743,
      "Strike": 4744,
      "saints": 4745,
      "rebels": 4746,
      "limbs": 4747,
      "countenance": 4748,
      "ruthless": 4749,
      "afflict": 4750,
      "Woe": 4751,
      "furnish": 4752,
      "rejoice": 4753,
      "likeness": 4754,
      "tapster": 4755,
      "extremity": 4756,
      "character": 4757,
      "intelligence": 4758,
      "Berkeley": 4759,
      "Courage": 4760,
      "Happy": 4761,
      "Jesu": 4762,
      "Tribunes": 4763,
      "twain": 4764,
      "exercise": 4765,
      "warriors": 4766,
      "Laurence": 4767,
      "proclamation": 4768,
      "sepulchre": 4769,
      "BARNARD": 4770,
      "Escalus": 4771,
      "Katharina": 4772,
      "Queen": 4773,
      "RUTLAND": 4774,
      "Surrey": 4775,
      "Villain": 4776,
      "Vaughan": 4777,
      "Wiltshire": 4778,
      "havior": 4779,
      "recompen": 4780,
      "sacrifi": 4781,
      "pernicious": 4782,
      "challenge": 4783,
      "Leontes": 4784,
      "ARCHIDAMUS": 4785,
      "BARNARDINE": 4786,
      "AP": 4787,
      "Abo": 4788,
      "ATER": 4789,
      "Ba": 4790,
      "BAG": 4791,
      "BAP": 4792,
      "Cle": 4793,
      "CRO": 4794,
      "CARL": 4795,
      "EP": 4796,
      "ELAND": 4797,
      "Fit": 4798,
      "Five": 4799,
      "Full": 4800,
      "FIT": 4801,
      "Gard": 4802,
      "Hang": 4803,
      "Hie": 4804,
      "IR": 4805,
      "Live": 4806,
      "Na": 4807,
      "Neither": 4808,
      "Nature": 4809,
      "OT": 4810,
      "Old": 4811,
      "Pre": 4812,
      "Pur": 4813,
      "Part": 4814,
      "Prep": 4815,
      "Raven": 4816,
      "Sus": 4817,
      "Sly": 4818,
      "Send": 4819,
      "Sta": 4820,
      "Soft": 4821,
      "Saw": 4822,
      "SCRO": 4823,
      "SIR": 4824,
      "Ten": 4825,
      "TON": 4826,
      "Toward": 4827,
      "Trust": 4828,
      "TIST": 4829,
      "TMOR": 4830,
      "Val": 4831,
      "Wr": 4832,
      "WES": 4833,
      "WATER": 4834,
      "ZWATER": 4835,
      "aving": 4836,
      "bere": 4837,
      "bent": 4838,
      "bill": 4839,
      "bore": 4840,
      "blast": 4841,
      "blot": 4842,
      "bishop": 4843,
      "dan": 4844,
      "dash": 4845,
      "een": 4846,
      "eight": 4847,
      "egi": 4848,
      "fis": 4849,
      "fed": 4850,
      "food": 4851,
      "fil": 4852,
      "fts": 4853,
      "fanta": 4854,
      "fray": 4855,
      "gown": 4856,
      "gap": 4857,
      "gund": 4858,
      "hend": 4859,
      "honey": 4860,
      "ia": 4861,
      "ient": 4862,
      "ible": 4863,
      "ians": 4864,
      "lun": 4865,
      "lance": 4866,
      "liness": 4867,
      "mat": 4868,
      "mould": 4869,
      "mil": 4870,
      "mate": 4871,
      "mers": 4872,
      "mish": 4873,
      "mits": 4874,
      "mask": 4875,
      "pu": 4876,
      "pill": 4877,
      "pts": 4878,
      "piti": 4879,
      "push": 4880,
      "ratch": 4881,
      "sess": 4882,
      "swo": 4883,
      "sings": 4884,
      "smother": 4885,
      "slight": 4886,
      "skill": 4887,
      "sides": 4888,
      "tou": 4889,
      "vit": 4890,
      "vul": 4891,
      "vity": 4892,
      "ws": 4893,
      "wre": 4894,
      "wal": 4895,
      "ware": 4896,
      "wks": 4897,
      "yest": 4898,
      "zing": 4899,
      "thin": 4900,
      "thirst": 4901,
      "thie": 4902,
      "oured": 4903,
      "ering": 4904,
      "iner": 4905,
      "inct": 4906,
      "infer": 4907,
      "ansport": 4908,
      "orous": 4909,
      "ising": 4910,
      "isted": 4911,
      "ener": 4912,
      "arg": 4913,
      "arrow": 4914,
      "attain": 4915,
      "attorney": 4916,
      "oned": 4917,
      "sting": 4918,
      "stick": 4919,
      "stale": 4920,
      "memor": 4921,
      "members": 4922,
      "tomorrow": 4923,
      "height": 4924,
      "essed": 4925,
      "sey": 4926,
      "severe": 4927,
      "search": 4928,
      "reb": 4929,
      "regard": 4930,
      "iter": 4931,
      "ittle": 4932,
      "itation": 4933,
      "itude": 4934,
      "begot": 4935,
      "betide": 4936,
      "beams": 4937,
      "wipe": 4938,
      "roses": 4939,
      "robb": 4940,
      "forty": 4941,
      "chers": 4942,
      "chop": 4943,
      "aspect": 4944,
      "erest": 4945,
      "deck": 4946,
      "depose": 4947,
      "devour": 4948,
      "destruction": 4949,
      "utch": 4950,
      "noted": 4951,
      "notice": 4952,
      "lig": 4953,
      "lier": 4954,
      "lied": 4955,
      "lick": 4956,
      "liking": 4957,
      "lift": 4958,
      "lions": 4959,
      "weal": 4960,
      "ourself": 4961,
      "ool": 4962,
      "hist": 4963,
      "rible": 4964,
      "aly": 4965,
      "also": 4966,
      "adul": 4967,
      "admir": 4968,
      "using": 4969,
      "allegi": 4970,
      "raven": 4971,
      "soms": 4972,
      "dove": 4973,
      "dozen": 4974,
      "dogs": 4975,
      "unting": 4976,
      "pel": 4977,
      "peach": 4978,
      "feed": 4979,
      "mag": 4980,
      "lovers": 4981,
      "loathe": 4982,
      "fami": 4983,
      "shade": 4984,
      "ckle": 4985,
      "idered": 4986,
      "nel": 4987,
      "suits": 4988,
      "sullen": 4989,
      "aming": 4990,
      "amends": 4991,
      "conceive": 4992,
      "conquest": 4993,
      "consequ": 4994,
      "constable": 4995,
      "concern": 4996,
      "Thine": 4997,
      "Things": 4998,
      "upid": 4999
    },
    "merges": [
      [
        "t",
        "h"
      ],
      [
        "o",
        "u"
      ],
      [
        "e",
        "r"
      ],
      [
        "i",
        "n"
      ],
      [
        "a",
        "n"
      ],
      [
        "th",
        "e"
      ],
      [
        "o",
        "r"
      ],
      [
        "i",
        "s"
      ],
      [
        "e",
        "n"
      ],
      [
        "a",
        "r"
      ],
      [
        "a",
        "t"
      ],
      [
        "o",
        "n"
      ],
      [
        "s",
        "t"
      ],
      [
        "l",
        "l"
      ],
      [
        "m",
        "e"
      ],
      [
        "t",
        "o"
      ],
      [
        "an",
        "d"
      ],
      [
        "h",
        "e"
      ],
      [
        "e",
        "s"
      ],
      [
        "y",
        "ou"
      ],
      [
        "n",
        "o"
      ],
      [
        "s",
        "e"
      ],
      [
        "h",
        "a"
      ],
      [
        "r",
        "e"
      ],
      [
        "o",
        "f"
      ],
      [
        "v",
        "e"
      ],
      [
        "i",
        "t"
      ],
      [
        "in",
        "g"
      ],
      [
        "b",
        "e"
      ],
      [
        "l",
        "e"
      ],
      [
        "w",
        "i"
      ],
      [
        "h",
        "i"
      ],
      [
        "m",
        "y"
      ],
      [
        "c",
        "e"
      ],
      [
        "r",
        "o"
      ],
      [
        "f",
        "or"
      ],
      [
        "a",
        "y"
      ],
      [
        "c",
        "h"
      ],
      [
        "a",
        "s"
      ],
      [
        "n",
        "d"
      ],
      [
        "er",
        "e"
      ],
      [
        "l",
        "d"
      ],
      [
        "i",
        "r"
      ],
      [
        "d",
        "e"
      ],
      [
        "o",
        "w"
      ],
      [
        "u",
        "t"
      ],
      [
        "no",
        "t"
      ],
      [
        "l",
        "i"
      ],
      [
        "w",
        "e"
      ],
      [
        "th",
        "at"
      ],
      [
        "h",
        "at"
      ],
      [
        "k",
        "e"
      ],
      [
        "g",
        "h"
      ],
      [
        "A",
        "nd"
      ],
      [
        "e",
        "d"
      ],
      [
        "ou",
        "r"
      ],
      [
        "o",
        "o"
      ],
      [
        "wi",
        "th"
      ],
      [
        "h",
        "is"
      ],
      [
        "o",
        "me"
      ],
      [
        "you",
        "r"
      ],
      [
        "r",
        "i"
      ],
      [
        "en",
        "t"
      ],
      [
        "th",
        "ou"
      ],
      [
        "a",
        "l"
      ],
      [
        "th",
        "er"
      ],
      [
        "a",
        "d"
      ],
      [
        "e",
        "t"
      ],
      [
        "E",
        "N"
      ],
      [
        "u",
        "r"
      ],
      [
        "gh",
        "t"
      ],
      [
        "u",
        "s"
      ],
      [
        "hi",
        "m"
      ],
      [
        "a",
        "ll"
      ],
      [
        "I",
        "N"
      ],
      [
        "ha",
        "ve"
      ],
      [
        "r",
        "a"
      ],
      [
        "l",
        "y"
      ],
      [
        "s",
        "o"
      ],
      [
        "th",
        "is"
      ],
      [
        "or",
        "d"
      ],
      [
        "d",
        "o"
      ],
      [
        "h",
        "o"
      ],
      [
        "u",
        "n"
      ],
      [
        "p",
        "e"
      ],
      [
        "A",
        "R"
      ],
      [
        "f",
        "e"
      ],
      [
        "es",
        "s"
      ],
      [
        "m",
        "a"
      ],
      [
        "l",
        "o"
      ],
      [
        "ou",
        "ld"
      ],
      [
        "oo",
        "d"
      ],
      [
        "th",
        "y"
      ],
      [
        "t",
        "i"
      ],
      [
        "h",
        "ere"
      ],
      [
        "ar",
        "e"
      ],
      [
        "v",
        "er"
      ],
      [
        "m",
        "an"
      ],
      [
        "on",
        "e"
      ],
      [
        "f",
        "a"
      ],
      [
        "T",
        "he"
      ],
      [
        "s",
        "ha"
      ],
      [
        "c",
        "k"
      ],
      [
        "no",
        "w"
      ],
      [
        "g",
        "e"
      ],
      [
        "l",
        "a"
      ],
      [
        "i",
        "d"
      ],
      [
        "n",
        "e"
      ],
      [
        "wi",
        "ll"
      ],
      [
        "U",
        "S"
      ],
      [
        "ar",
        "d"
      ],
      [
        "b",
        "ut"
      ],
      [
        "s",
        "u"
      ],
      [
        "a",
        "m"
      ],
      [
        "h",
        "er"
      ],
      [
        "I",
        "O"
      ],
      [
        "c",
        "on"
      ],
      [
        "t",
        "er"
      ],
      [
        "T",
        "o"
      ],
      [
        "T",
        "h"
      ],
      [
        "p",
        "r"
      ],
      [
        "u",
        "e"
      ],
      [
        "b",
        "y"
      ],
      [
        "a",
        "in"
      ],
      [
        "en",
        "d"
      ],
      [
        "ar",
        "t"
      ],
      [
        "IN",
        "G"
      ],
      [
        "the",
        "e"
      ],
      [
        "o",
        "m"
      ],
      [
        "sha",
        "ll"
      ],
      [
        "u",
        "p"
      ],
      [
        "m",
        "or"
      ],
      [
        "ro",
        "m"
      ],
      [
        "s",
        "h"
      ],
      [
        "p",
        "o"
      ],
      [
        "E",
        "S"
      ],
      [
        "ou",
        "s"
      ],
      [
        "O",
        "R"
      ],
      [
        "u",
        "st"
      ],
      [
        "T",
        "hat"
      ],
      [
        "c",
        "ome"
      ],
      [
        "se",
        "l"
      ],
      [
        "w",
        "hat"
      ],
      [
        "t",
        "r"
      ],
      [
        "m",
        "o"
      ],
      [
        "E",
        "R"
      ],
      [
        "l",
        "ord"
      ],
      [
        "t",
        "a"
      ],
      [
        "t",
        "e"
      ],
      [
        "i",
        "ll"
      ],
      [
        "L",
        "A"
      ],
      [
        "a",
        "th"
      ],
      [
        "K",
        "ING"
      ],
      [
        "g",
        "ood"
      ],
      [
        "k",
        "ing"
      ],
      [
        "g",
        "o"
      ],
      [
        "i",
        "ght"
      ],
      [
        "i",
        "f"
      ],
      [
        "U",
        "C"
      ],
      [
        "B",
        "ut"
      ],
      [
        "h",
        "en"
      ],
      [
        "i",
        "on"
      ],
      [
        "hi",
        "ch"
      ],
      [
        "ro",
        "w"
      ],
      [
        "in",
        "e"
      ],
      [
        "v",
        "en"
      ],
      [
        "b",
        "le"
      ],
      [
        "b",
        "o"
      ],
      [
        "u",
        "l"
      ],
      [
        "I",
        "C"
      ],
      [
        "f",
        "rom"
      ],
      [
        "w",
        "as"
      ],
      [
        "b",
        "l"
      ],
      [
        "W",
        "hat"
      ],
      [
        "E",
        "T"
      ],
      [
        "an",
        "t"
      ],
      [
        "i",
        "l"
      ],
      [
        "F",
        "or"
      ],
      [
        "on",
        "g"
      ],
      [
        "the",
        "m"
      ],
      [
        "mor",
        "e"
      ],
      [
        "we",
        "ll"
      ],
      [
        "I",
        "US"
      ],
      [
        "s",
        "a"
      ],
      [
        "AR",
        "D"
      ],
      [
        "w",
        "ould"
      ],
      [
        "c",
        "a"
      ],
      [
        "sel",
        "f"
      ],
      [
        "c",
        "t"
      ],
      [
        "c",
        "an"
      ],
      [
        "ou",
        "t"
      ],
      [
        "s",
        "he"
      ],
      [
        "th",
        "ere"
      ],
      [
        "lo",
        "ve"
      ],
      [
        "i",
        "ve"
      ],
      [
        "p",
        "er"
      ],
      [
        "a",
        "k"
      ],
      [
        "k",
        "now"
      ],
      [
        "w",
        "or"
      ],
      [
        "in",
        "d"
      ],
      [
        "the",
        "ir"
      ],
      [
        "le",
        "t"
      ],
      [
        "c",
        "i"
      ],
      [
        "d",
        "i"
      ],
      [
        "se",
        "e"
      ],
      [
        "the",
        "n"
      ],
      [
        "ow",
        "n"
      ],
      [
        "M",
        "y"
      ],
      [
        "s",
        "ay"
      ],
      [
        "E",
        "L"
      ],
      [
        "c",
        "om"
      ],
      [
        "the",
        "y"
      ],
      [
        "th",
        "an"
      ],
      [
        "en",
        "ce"
      ],
      [
        "-",
        "-"
      ],
      [
        "r",
        "y"
      ],
      [
        "s",
        "ir"
      ],
      [
        "at",
        "e"
      ],
      [
        "b",
        "ro"
      ],
      [
        "for",
        "e"
      ],
      [
        "e",
        "ar"
      ],
      [
        "a",
        "g"
      ],
      [
        "G",
        "o"
      ],
      [
        "K",
        "E"
      ],
      [
        "e",
        "p"
      ],
      [
        "s",
        "pe"
      ],
      [
        "I",
        "I"
      ],
      [
        "er",
        "s"
      ],
      [
        "li",
        "ke"
      ],
      [
        "p",
        "ro"
      ],
      [
        "m",
        "ay"
      ],
      [
        "A",
        "s"
      ],
      [
        "w",
        "ere"
      ],
      [
        "is",
        "h"
      ],
      [
        "u",
        "m"
      ],
      [
        "W",
        "e"
      ],
      [
        "v",
        "es"
      ],
      [
        "g",
        "ra"
      ],
      [
        "w",
        "ay"
      ],
      [
        "ti",
        "me"
      ],
      [
        "a",
        "st"
      ],
      [
        "ha",
        "th"
      ],
      [
        "h",
        "y"
      ],
      [
        "O",
        "L"
      ],
      [
        "ir",
        "st"
      ],
      [
        "o",
        "l"
      ],
      [
        "u",
        "re"
      ],
      [
        "in",
        "k"
      ],
      [
        "w",
        "ho"
      ],
      [
        "H",
        "e"
      ],
      [
        "p",
        "le"
      ],
      [
        "q",
        "u"
      ],
      [
        "N",
        "o"
      ],
      [
        "ma",
        "ke"
      ],
      [
        "O",
        "M"
      ],
      [
        "i",
        "th"
      ],
      [
        "ou",
        "nd"
      ],
      [
        "m",
        "ust"
      ],
      [
        "Y",
        "ou"
      ],
      [
        "s",
        "ome"
      ],
      [
        "th",
        "ing"
      ],
      [
        "a",
        "ve"
      ],
      [
        "L",
        "O"
      ],
      [
        "it",
        "y"
      ],
      [
        "u",
        "se"
      ],
      [
        "ha",
        "d"
      ],
      [
        "sh",
        "ould"
      ],
      [
        "to",
        "o"
      ],
      [
        "up",
        "on"
      ],
      [
        "de",
        "ath"
      ],
      [
        "a",
        "p"
      ],
      [
        "d",
        "is"
      ],
      [
        "oo",
        "k"
      ],
      [
        "w",
        "ard"
      ],
      [
        "d",
        "ay"
      ],
      [
        "C",
        "A"
      ],
      [
        "f",
        "ri"
      ],
      [
        "s",
        "on"
      ],
      [
        "f",
        "i"
      ],
      [
        "R",
        "IC"
      ],
      [
        "RIC",
        "H"
      ],
      [
        "D",
        "U"
      ],
      [
        "v",
        "i"
      ],
      [
        "DU",
        "KE"
      ],
      [
        "E",
        "O"
      ],
      [
        "d",
        "id"
      ],
      [
        "w",
        "hich"
      ],
      [
        "ou",
        "n"
      ],
      [
        "w",
        "ord"
      ],
      [
        "an",
        "ce"
      ],
      [
        "w",
        "o"
      ],
      [
        "fa",
        "ther"
      ],
      [
        "U",
        "L"
      ],
      [
        "RICH",
        "ARD"
      ],
      [
        "I",
        "f"
      ],
      [
        "s",
        "i"
      ],
      [
        "m",
        "en"
      ],
      [
        "he",
        "art"
      ],
      [
        "T",
        "IO"
      ],
      [
        "w",
        "hen"
      ],
      [
        "re",
        "at"
      ],
      [
        "spe",
        "ak"
      ],
      [
        "f",
        "ul"
      ],
      [
        "I",
        "n"
      ],
      [
        "h",
        "and"
      ],
      [
        "ag",
        "ain"
      ],
      [
        "h",
        "ow"
      ],
      [
        "s",
        "p"
      ],
      [
        "y",
        "et"
      ],
      [
        "e",
        "st"
      ],
      [
        "ent",
        "le"
      ],
      [
        "g",
        "n"
      ],
      [
        "W",
        "hich"
      ],
      [
        "Go",
        "d"
      ],
      [
        "A",
        "B"
      ],
      [
        "B",
        "e"
      ],
      [
        "bl",
        "ood"
      ],
      [
        "th",
        "ink"
      ],
      [
        "F",
        "irst"
      ],
      [
        "in",
        "ce"
      ],
      [
        "W",
        "ith"
      ],
      [
        "a",
        "c"
      ],
      [
        "ver",
        "y"
      ],
      [
        "o",
        "ld"
      ],
      [
        "bro",
        "ther"
      ],
      [
        "U",
        "E"
      ],
      [
        "IN",
        "C"
      ],
      [
        "m",
        "ine"
      ],
      [
        "he",
        "a"
      ],
      [
        "Th",
        "ou"
      ],
      [
        "d",
        "es"
      ],
      [
        "on",
        "our"
      ],
      [
        "ta",
        "ke"
      ],
      [
        "he",
        "ar"
      ],
      [
        "T",
        "ER"
      ],
      [
        "s",
        "we"
      ],
      [
        "m",
        "ar"
      ],
      [
        "e",
        "l"
      ],
      [
        "g",
        "ive"
      ],
      [
        "O",
        "f"
      ],
      [
        "b",
        "re"
      ],
      [
        "e",
        "x"
      ],
      [
        "l",
        "and"
      ],
      [
        "n",
        "a"
      ],
      [
        "st",
        "r"
      ],
      [
        "u",
        "ch"
      ],
      [
        "A",
        "N"
      ],
      [
        "l",
        "ess"
      ],
      [
        "q",
        "ue"
      ],
      [
        "G",
        "LO"
      ],
      [
        "ES",
        "TER"
      ],
      [
        "UC",
        "ESTER"
      ],
      [
        "GLO",
        "UCESTER"
      ],
      [
        "v",
        "o"
      ],
      [
        "mo",
        "st"
      ],
      [
        "m",
        "ent"
      ],
      [
        "b",
        "a"
      ],
      [
        "o",
        "ther"
      ],
      [
        "is",
        "e"
      ],
      [
        "su",
        "ch"
      ],
      [
        "fri",
        "end"
      ],
      [
        "I",
        "S"
      ],
      [
        "the",
        "se"
      ],
      [
        "L",
        "ord"
      ],
      [
        "e",
        "y"
      ],
      [
        "n",
        "ess"
      ],
      [
        "ll",
        "ow"
      ],
      [
        "S",
        "o"
      ],
      [
        "c",
        "oun"
      ],
      [
        "li",
        "fe"
      ],
      [
        "R",
        "Y"
      ],
      [
        "R",
        "ome"
      ],
      [
        "t",
        "y"
      ],
      [
        "ur",
        "se"
      ],
      [
        "W",
        "hy"
      ],
      [
        "an",
        "y"
      ],
      [
        "Q",
        "UE"
      ],
      [
        "LA",
        "N"
      ],
      [
        "QUE",
        "EN"
      ],
      [
        "w",
        "ar"
      ],
      [
        "an",
        "g"
      ],
      [
        "O",
        "F"
      ],
      [
        "v",
        "ing"
      ],
      [
        "ou",
        "l"
      ],
      [
        "T",
        "his"
      ],
      [
        "EN",
        "TIO"
      ],
      [
        "t",
        "s"
      ],
      [
        "w",
        "here"
      ],
      [
        "te",
        "ll"
      ],
      [
        "H",
        "ow"
      ],
      [
        "h",
        "onour"
      ],
      [
        "ad",
        "y"
      ],
      [
        "B",
        "R"
      ],
      [
        "a",
        "b"
      ],
      [
        "C",
        "ome"
      ],
      [
        "W",
        "ho"
      ],
      [
        "ne",
        "w"
      ],
      [
        "H",
        "EN"
      ],
      [
        "M",
        "ar"
      ],
      [
        "a",
        "f"
      ],
      [
        "b",
        "r"
      ],
      [
        "l",
        "ook"
      ],
      [
        "S",
        "e"
      ],
      [
        "ti",
        "on"
      ],
      [
        "i",
        "m"
      ],
      [
        "n",
        "ight"
      ],
      [
        "row",
        "n"
      ],
      [
        "con",
        "d"
      ],
      [
        "g",
        "entle"
      ],
      [
        "of",
        "f"
      ],
      [
        "ma",
        "de"
      ],
      [
        "fa",
        "ir"
      ],
      [
        "HEN",
        "RY"
      ],
      [
        "st",
        "er"
      ],
      [
        "ha",
        "st"
      ],
      [
        "m",
        "uch"
      ],
      [
        "an",
        "s"
      ],
      [
        "fe",
        "ar"
      ],
      [
        "p",
        "re"
      ],
      [
        "st",
        "and"
      ],
      [
        "c",
        "hi"
      ],
      [
        "li",
        "e"
      ],
      [
        "t",
        "is"
      ],
      [
        "ur",
        "n"
      ],
      [
        "V",
        "INC"
      ],
      [
        "on",
        "d"
      ],
      [
        "VINC",
        "ENTIO"
      ],
      [
        "a",
        "ge"
      ],
      [
        "or",
        "t"
      ],
      [
        "p",
        "l"
      ],
      [
        "I",
        "s"
      ],
      [
        "Y",
        "OR"
      ],
      [
        "i",
        "gn"
      ],
      [
        "n",
        "g"
      ],
      [
        "u",
        "ke"
      ],
      [
        "YOR",
        "K"
      ],
      [
        "W",
        "here"
      ],
      [
        "p",
        "art"
      ],
      [
        "e",
        "f"
      ],
      [
        "s",
        "c"
      ],
      [
        "u",
        "ght"
      ],
      [
        "m",
        "is"
      ],
      [
        "t",
        "le"
      ],
      [
        "IN",
        "IUS"
      ],
      [
        "N",
        "T"
      ],
      [
        "Y",
        "our"
      ],
      [
        "li",
        "ve"
      ],
      [
        "p",
        "la"
      ],
      [
        "it",
        "i"
      ],
      [
        "A",
        "U"
      ],
      [
        "f",
        "o"
      ],
      [
        "e",
        "m"
      ],
      [
        "j",
        "o"
      ],
      [
        "l",
        "t"
      ],
      [
        "ar",
        "m"
      ],
      [
        "at",
        "ion"
      ],
      [
        "ow",
        "er"
      ],
      [
        "na",
        "me"
      ],
      [
        "D",
        "W"
      ],
      [
        "E",
        "DW"
      ],
      [
        "c",
        "he"
      ],
      [
        "EDW",
        "ARD"
      ],
      [
        "b",
        "er"
      ],
      [
        "g",
        "reat"
      ],
      [
        "no",
        "ble"
      ],
      [
        "hea",
        "ven"
      ],
      [
        "be",
        "ar"
      ],
      [
        "tr",
        "ue"
      ],
      [
        "N",
        "ow"
      ],
      [
        "O",
        "r"
      ],
      [
        "can",
        "not"
      ],
      [
        "f",
        "l"
      ],
      [
        "s",
        "er"
      ],
      [
        "ne",
        "ver"
      ],
      [
        "he",
        "ad"
      ],
      [
        "A",
        "n"
      ],
      [
        "E",
        "d"
      ],
      [
        "re",
        "e"
      ],
      [
        "for",
        "t"
      ],
      [
        "H",
        "A"
      ],
      [
        "I",
        "t"
      ],
      [
        "be",
        "en"
      ],
      [
        "M",
        "EN"
      ],
      [
        "R",
        "OM"
      ],
      [
        "c",
        "es"
      ],
      [
        "c",
        "all"
      ],
      [
        "in",
        "t"
      ],
      [
        "Ed",
        "ward"
      ],
      [
        "ROM",
        "EO"
      ],
      [
        "EN",
        "IUS"
      ],
      [
        "gra",
        "ce"
      ],
      [
        "MEN",
        "ENIUS"
      ],
      [
        "a",
        "se"
      ],
      [
        "e",
        "ver"
      ],
      [
        "re",
        "d"
      ],
      [
        "R",
        "i"
      ],
      [
        "p",
        "a"
      ],
      [
        "o",
        "p"
      ],
      [
        "z",
        "en"
      ],
      [
        "ou",
        "gh"
      ],
      [
        ",",
        "--"
      ],
      [
        "T",
        "here"
      ],
      [
        "d",
        "one"
      ],
      [
        "que",
        "en"
      ],
      [
        "i",
        "es"
      ],
      [
        "m",
        "er"
      ],
      [
        "s",
        "oul"
      ],
      [
        "do",
        "th"
      ],
      [
        "n",
        "or"
      ],
      [
        "w",
        "r"
      ],
      [
        "de",
        "ad"
      ],
      [
        "g",
        "r"
      ],
      [
        "p",
        "t"
      ],
      [
        "be",
        "t"
      ],
      [
        "swe",
        "et"
      ],
      [
        "B",
        "y"
      ],
      [
        "u",
        "nd"
      ],
      [
        "re",
        "st"
      ],
      [
        "u",
        "ll"
      ],
      [
        "M",
        "AR"
      ],
      [
        "r",
        "es"
      ],
      [
        "W",
        "hen"
      ],
      [
        "a",
        "ce"
      ],
      [
        "ou",
        "se"
      ],
      [
        "ar",
        "s"
      ],
      [
        "C",
        "l"
      ],
      [
        "C",
        "OR"
      ],
      [
        "I",
        "Z"
      ],
      [
        "as",
        "s"
      ],
      [
        "IO",
        "LAN"
      ],
      [
        "pr",
        "ay"
      ],
      [
        "COR",
        "IOLAN"
      ],
      [
        "CORIOLAN",
        "US"
      ],
      [
        "a",
        "ke"
      ],
      [
        "com",
        "m"
      ],
      [
        "Se",
        "cond"
      ],
      [
        "i",
        "e"
      ],
      [
        "i",
        "ce"
      ],
      [
        "ing",
        "s"
      ],
      [
        "A",
        "y"
      ],
      [
        "or",
        "n"
      ],
      [
        "d",
        "own"
      ],
      [
        "s",
        "s"
      ],
      [
        "se",
        "t"
      ],
      [
        "it",
        "e"
      ],
      [
        "mo",
        "ther"
      ],
      [
        "bo",
        "th"
      ],
      [
        "L",
        "et"
      ],
      [
        "c",
        "o"
      ],
      [
        "re",
        "t"
      ],
      [
        "be",
        "fore"
      ],
      [
        "Th",
        "an"
      ],
      [
        "Ri",
        "ch"
      ],
      [
        "pr",
        "es"
      ],
      [
        "wor",
        "ld"
      ],
      [
        "c",
        "our"
      ],
      [
        "d",
        "er"
      ],
      [
        "N",
        "or"
      ],
      [
        "p",
        "ut"
      ],
      [
        "thou",
        "ght"
      ],
      [
        "iti",
        "zen"
      ],
      [
        "Th",
        "en"
      ],
      [
        "H",
        "ere"
      ],
      [
        "I",
        "V"
      ],
      [
        "ho",
        "ld"
      ],
      [
        "ca",
        "use"
      ],
      [
        "p",
        "p"
      ],
      [
        "t",
        "ri"
      ],
      [
        "wi",
        "ck"
      ],
      [
        "come",
        "s"
      ],
      [
        "II",
        "I"
      ],
      [
        "l",
        "ong"
      ],
      [
        "or",
        "e"
      ],
      [
        "chi",
        "ld"
      ],
      [
        "le",
        "ave"
      ],
      [
        "my",
        "self"
      ],
      [
        "de",
        "ed"
      ],
      [
        "be",
        "ing"
      ],
      [
        "friend",
        "s"
      ],
      [
        "ey",
        "es"
      ],
      [
        "d",
        "a"
      ],
      [
        "w",
        "hi"
      ],
      [
        "ve",
        "d"
      ],
      [
        "di",
        "e"
      ],
      [
        "W",
        "ar"
      ],
      [
        "h",
        "ouse"
      ],
      [
        "t",
        "ra"
      ],
      [
        "u",
        "ck"
      ],
      [
        "th",
        "us"
      ],
      [
        "for",
        "d"
      ],
      [
        "po",
        "or"
      ],
      [
        "War",
        "wick"
      ],
      [
        "L",
        "UC"
      ],
      [
        "p",
        "ri"
      ],
      [
        "be",
        "g"
      ],
      [
        "m",
        "i"
      ],
      [
        "le",
        "d"
      ],
      [
        "d",
        "y"
      ],
      [
        "EL",
        "LA"
      ],
      [
        "AB",
        "ELLA"
      ],
      [
        "IS",
        "ABELLA"
      ],
      [
        "ri",
        "ght"
      ],
      [
        "Rome",
        "o"
      ],
      [
        "C",
        "L"
      ],
      [
        "U",
        "M"
      ],
      [
        "c",
        "rown"
      ],
      [
        "g",
        "ri"
      ],
      [
        "at",
        "ter"
      ],
      [
        "wi",
        "fe"
      ],
      [
        "a",
        "way"
      ],
      [
        "man",
        "y"
      ],
      [
        "ci",
        "ous"
      ],
      [
        "I",
        "ET"
      ],
      [
        "J",
        "UL"
      ],
      [
        "L",
        "EO"
      ],
      [
        "in",
        "s"
      ],
      [
        "ught",
        "er"
      ],
      [
        "NT",
        "ES"
      ],
      [
        "JUL",
        "IET"
      ],
      [
        "LEO",
        "NTES"
      ],
      [
        "D",
        "o"
      ],
      [
        "H",
        "is"
      ],
      [
        "V",
        "I"
      ],
      [
        "k",
        "s"
      ],
      [
        "S",
        "he"
      ],
      [
        "m",
        "ight"
      ],
      [
        "t",
        "en"
      ],
      [
        "li",
        "ght"
      ],
      [
        "D",
        "Y"
      ],
      [
        "I",
        "L"
      ],
      [
        "a",
        "ch"
      ],
      [
        "t",
        "re"
      ],
      [
        "LA",
        "DY"
      ],
      [
        "C",
        "E"
      ],
      [
        "V",
        "OL"
      ],
      [
        "r",
        "u"
      ],
      [
        "t",
        "ed"
      ],
      [
        "en",
        "g"
      ],
      [
        "de",
        "d"
      ],
      [
        "EN",
        "CE"
      ],
      [
        "t",
        "ong"
      ],
      [
        "is",
        "on"
      ],
      [
        "st",
        "ay"
      ],
      [
        "C",
        "itizen"
      ],
      [
        "d",
        "s"
      ],
      [
        "pr",
        "ince"
      ],
      [
        "po",
        "se"
      ],
      [
        "g",
        "u"
      ],
      [
        "g",
        "one"
      ],
      [
        "o",
        "se"
      ],
      [
        "p",
        "s"
      ],
      [
        "ur",
        "der"
      ],
      [
        "S",
        "er"
      ],
      [
        "S",
        "IC"
      ],
      [
        "f",
        "oo"
      ],
      [
        "k",
        "es"
      ],
      [
        "SIC",
        "INIUS"
      ],
      [
        "l",
        "it"
      ],
      [
        "an",
        "ge"
      ],
      [
        "fa",
        "ce"
      ],
      [
        "word",
        "s"
      ],
      [
        "no",
        "thing"
      ],
      [
        "ti",
        "ll"
      ],
      [
        "lord",
        "s"
      ],
      [
        "c",
        "l"
      ],
      [
        "i",
        "ther"
      ],
      [
        "or",
        "s"
      ],
      [
        "at",
        "ch"
      ],
      [
        "ear",
        "s"
      ],
      [
        "E",
        "Y"
      ],
      [
        "p",
        "ar"
      ],
      [
        "w",
        "er"
      ],
      [
        "thou",
        "gh"
      ],
      [
        "sh",
        "ow"
      ],
      [
        "again",
        "st"
      ],
      [
        "jo",
        "y"
      ],
      [
        "P",
        "ro"
      ],
      [
        "b",
        "id"
      ],
      [
        "t",
        "al"
      ],
      [
        "th",
        "ose"
      ],
      [
        "la",
        "w"
      ],
      [
        "We",
        "ll"
      ],
      [
        "T",
        "is"
      ],
      [
        "b",
        "ra"
      ],
      [
        "c",
        "tion"
      ],
      [
        "f",
        "t"
      ],
      [
        "new",
        "s"
      ],
      [
        "LUC",
        "IO"
      ],
      [
        "d",
        "uke"
      ],
      [
        "s",
        "ent"
      ],
      [
        "un",
        "e"
      ],
      [
        "bet",
        "ter"
      ],
      [
        "Rich",
        "ard"
      ],
      [
        "a",
        "ble"
      ],
      [
        "ro",
        "y"
      ],
      [
        "S",
        "ir"
      ],
      [
        "U",
        "n"
      ],
      [
        "b",
        "an"
      ],
      [
        "h",
        "our"
      ],
      [
        "k",
        "ind"
      ],
      [
        "p",
        "ur"
      ],
      [
        "s",
        "la"
      ],
      [
        "him",
        "self"
      ],
      [
        "Y",
        "or"
      ],
      [
        "p",
        "ower"
      ],
      [
        "he",
        "l"
      ],
      [
        "hen",
        "ce"
      ],
      [
        "S",
        "ha"
      ],
      [
        "c",
        "y"
      ],
      [
        "hi",
        "gh"
      ],
      [
        "ard",
        "on"
      ],
      [
        "lit",
        "tle"
      ],
      [
        "b",
        "and"
      ],
      [
        "d",
        "en"
      ],
      [
        "ET",
        "H"
      ],
      [
        "EL",
        "IZ"
      ],
      [
        "No",
        "t"
      ],
      [
        "AB",
        "ETH"
      ],
      [
        "Yor",
        "k"
      ],
      [
        "ELIZ",
        "ABETH"
      ],
      [
        "l",
        "ady"
      ],
      [
        "m",
        "ad"
      ],
      [
        "st",
        "ill"
      ],
      [
        "de",
        "ar"
      ],
      [
        "pe",
        "ace"
      ],
      [
        "N",
        "ay"
      ],
      [
        "c",
        "ould"
      ],
      [
        "f",
        "ar"
      ],
      [
        "ch",
        "ar"
      ],
      [
        "H",
        "en"
      ],
      [
        "g",
        "i"
      ],
      [
        "j",
        "ust"
      ],
      [
        "r",
        "en"
      ],
      [
        "be",
        "st"
      ],
      [
        "ke",
        "ep"
      ],
      [
        "ho",
        "pe"
      ],
      [
        "su",
        "b"
      ],
      [
        "ba",
        "ck"
      ],
      [
        "Hen",
        "ry"
      ],
      [
        "H",
        "ave"
      ],
      [
        "I",
        "A"
      ],
      [
        "M",
        "ER"
      ],
      [
        "N",
        "E"
      ],
      [
        "s",
        "le"
      ],
      [
        "con",
        "t"
      ],
      [
        "tong",
        "ue"
      ],
      [
        "W",
        "ill"
      ],
      [
        "o",
        "ple"
      ],
      [
        "as",
        "on"
      ],
      [
        "Th",
        "y"
      ],
      [
        "W",
        "AR"
      ],
      [
        "W",
        "IC"
      ],
      [
        "c",
        "ut"
      ],
      [
        "d",
        "re"
      ],
      [
        "e",
        "ch"
      ],
      [
        "pe",
        "ople"
      ],
      [
        "ear",
        "th"
      ],
      [
        "WAR",
        "WIC"
      ],
      [
        "WARWIC",
        "K"
      ],
      [
        "U",
        "T"
      ],
      [
        "b",
        "es"
      ],
      [
        "t",
        "end"
      ],
      [
        "N",
        "urse"
      ],
      [
        "j",
        "e"
      ],
      [
        "n",
        "at"
      ],
      [
        "th",
        "r"
      ],
      [
        "ou",
        "ght"
      ],
      [
        "st",
        "e"
      ],
      [
        "G",
        "R"
      ],
      [
        "c",
        "ha"
      ],
      [
        "f",
        "ull"
      ],
      [
        "s",
        "or"
      ],
      [
        "t",
        "wo"
      ],
      [
        "you",
        "ng"
      ],
      [
        "it",
        "s"
      ],
      [
        "are",
        "well"
      ],
      [
        "ne",
        "ed"
      ],
      [
        "UC",
        "H"
      ],
      [
        "HA",
        "M"
      ],
      [
        "P",
        "UL"
      ],
      [
        "c",
        "le"
      ],
      [
        "for",
        "th"
      ],
      [
        "un",
        "to"
      ],
      [
        "CA",
        "PUL"
      ],
      [
        "da",
        "ughter"
      ],
      [
        "CAPUL",
        "ET"
      ],
      [
        "f",
        "all"
      ],
      [
        "h",
        "us"
      ],
      [
        "l",
        "ay"
      ],
      [
        "ar",
        "k"
      ],
      [
        "pla",
        "ce"
      ],
      [
        "t",
        "ain"
      ],
      [
        "be",
        "d"
      ],
      [
        "con",
        "f"
      ],
      [
        "fo",
        "llow"
      ],
      [
        "g",
        "ar"
      ],
      [
        "th",
        "ine"
      ],
      [
        "in",
        "ess"
      ],
      [
        "on",
        "ce"
      ],
      [
        "ha",
        "pp"
      ],
      [
        "ous",
        "in"
      ],
      [
        "af",
        "ter"
      ],
      [
        "und",
        "er"
      ],
      [
        "hus",
        "band"
      ],
      [
        "B",
        "UC"
      ],
      [
        "f",
        "ind"
      ],
      [
        "h",
        "ome"
      ],
      [
        "p",
        "ardon"
      ],
      [
        "fe",
        "llow"
      ],
      [
        "la",
        "st"
      ],
      [
        "KING",
        "HAM"
      ],
      [
        "see",
        "m"
      ],
      [
        "BR",
        "UT"
      ],
      [
        "Sha",
        "ll"
      ],
      [
        "BUC",
        "KINGHAM"
      ],
      [
        "BRUT",
        "US"
      ],
      [
        "B",
        "OL"
      ],
      [
        "G",
        "ood"
      ],
      [
        "O",
        "KE"
      ],
      [
        "f",
        "irst"
      ],
      [
        "i",
        "us"
      ],
      [
        "k",
        "ill"
      ],
      [
        "v",
        "ant"
      ],
      [
        "w",
        "hy"
      ],
      [
        "ri",
        "ed"
      ],
      [
        "ING",
        "BR"
      ],
      [
        "ES",
        "S"
      ],
      [
        "LA",
        "U"
      ],
      [
        "there",
        "fore"
      ],
      [
        "qu",
        "i"
      ],
      [
        "BOL",
        "INGBR"
      ],
      [
        "BOLINGBR",
        "OKE"
      ],
      [
        "M",
        "IL"
      ],
      [
        "Y",
        "et"
      ],
      [
        "r",
        "an"
      ],
      [
        "tr",
        "u"
      ],
      [
        "te",
        "ars"
      ],
      [
        "vo",
        "st"
      ],
      [
        "T",
        "H"
      ],
      [
        "p",
        "i"
      ],
      [
        "me",
        "an"
      ],
      [
        "sha",
        "me"
      ],
      [
        "tr",
        "y"
      ],
      [
        "el",
        "se"
      ],
      [
        "g",
        "l"
      ],
      [
        "g",
        "et"
      ],
      [
        "g",
        "ue"
      ],
      [
        "m",
        "ind"
      ],
      [
        "bo",
        "y"
      ],
      [
        "sa",
        "id"
      ],
      [
        "ca",
        "me"
      ],
      [
        "com",
        "p"
      ],
      [
        "hand",
        "s"
      ],
      [
        "ac",
        "c"
      ],
      [
        "A",
        "ll"
      ],
      [
        "G",
        "AR"
      ],
      [
        "b",
        "u"
      ],
      [
        "d",
        "ra"
      ],
      [
        "i",
        "o"
      ],
      [
        "n",
        "one"
      ],
      [
        "ou",
        "d"
      ],
      [
        "is",
        "ter"
      ],
      [
        "re",
        "p"
      ],
      [
        "MAR",
        "GAR"
      ],
      [
        "roy",
        "al"
      ],
      [
        "MARGAR",
        "ET"
      ],
      [
        "F",
        "rom"
      ],
      [
        "d",
        "r"
      ],
      [
        "g",
        "en"
      ],
      [
        "at",
        "es"
      ],
      [
        "The",
        "y"
      ],
      [
        "mor",
        "row"
      ],
      [
        "te",
        "m"
      ],
      [
        "who",
        "se"
      ],
      [
        "d",
        "ou"
      ],
      [
        "G",
        "EL"
      ],
      [
        "O",
        "ur"
      ],
      [
        "j",
        "est"
      ],
      [
        "st",
        "ate"
      ],
      [
        "hi",
        "ther"
      ],
      [
        "OR",
        "D"
      ],
      [
        "gra",
        "cious"
      ],
      [
        "wo",
        "man"
      ],
      [
        "AN",
        "GEL"
      ],
      [
        "ANGEL",
        "O"
      ],
      [
        "E",
        "ng"
      ],
      [
        "K",
        "ing"
      ],
      [
        "v",
        "y"
      ],
      [
        "ar",
        "ence"
      ],
      [
        "ple",
        "ase"
      ],
      [
        "wr",
        "ong"
      ],
      [
        "Cl",
        "arence"
      ],
      [
        "c",
        "lo"
      ],
      [
        "s",
        "and"
      ],
      [
        "ma",
        "id"
      ],
      [
        "ci",
        "us"
      ],
      [
        "pres",
        "ent"
      ],
      [
        "sor",
        "row"
      ],
      [
        "O",
        "n"
      ],
      [
        "p",
        "at"
      ],
      [
        "v",
        "ere"
      ],
      [
        "he",
        "ard"
      ],
      [
        "we",
        "ep"
      ],
      [
        "Mar",
        "cius"
      ],
      [
        "F",
        "R"
      ],
      [
        "S",
        "T"
      ],
      [
        "c",
        "er"
      ],
      [
        "c",
        "ar"
      ],
      [
        "f",
        "al"
      ],
      [
        "g",
        "ain"
      ],
      [
        "s",
        "hi"
      ],
      [
        "me",
        "et"
      ],
      [
        "hel",
        "p"
      ],
      [
        "L",
        "US"
      ],
      [
        "c",
        "ousin"
      ],
      [
        "e",
        "very"
      ],
      [
        "m",
        "ber"
      ],
      [
        "t",
        "ing"
      ],
      [
        "we",
        "l"
      ],
      [
        "pr",
        "ison"
      ],
      [
        "ES",
        "CA"
      ],
      [
        "br",
        "ing"
      ],
      [
        "ESCA",
        "LUS"
      ],
      [
        "f",
        "f"
      ],
      [
        "s",
        "ince"
      ],
      [
        "hat",
        "e"
      ],
      [
        "la",
        "ck"
      ],
      [
        "sel",
        "ves"
      ],
      [
        "who",
        "m"
      ],
      [
        "ey",
        "e"
      ],
      [
        "ans",
        "wer"
      ],
      [
        "whi",
        "le"
      ],
      [
        "O",
        "N"
      ],
      [
        "S",
        "t"
      ],
      [
        "s",
        "en"
      ],
      [
        "s",
        "un"
      ],
      [
        "li",
        "es"
      ],
      [
        "thou",
        "sand"
      ],
      [
        "ma",
        "kes"
      ],
      [
        "D",
        "UCH"
      ],
      [
        "k",
        "en"
      ],
      [
        "v",
        "ir"
      ],
      [
        "w",
        "n"
      ],
      [
        "ce",
        "ive"
      ],
      [
        "as",
        "ure"
      ],
      [
        "bo",
        "dy"
      ],
      [
        "bro",
        "ke"
      ],
      [
        "vi",
        "ce"
      ],
      [
        "ab",
        "out"
      ],
      [
        "DUCH",
        "ESS"
      ],
      [
        "c",
        "ur"
      ],
      [
        "e",
        "ld"
      ],
      [
        "o",
        "ver"
      ],
      [
        "p",
        "her"
      ],
      [
        "x",
        "t"
      ],
      [
        "it",
        "ion"
      ],
      [
        "An",
        "ge"
      ],
      [
        "gri",
        "ef"
      ],
      [
        "P",
        "r"
      ],
      [
        "U",
        "p"
      ],
      [
        "p",
        "et"
      ],
      [
        "fort",
        "une"
      ],
      [
        "urder",
        "er"
      ],
      [
        "Ange",
        "lo"
      ],
      [
        "D",
        "uke"
      ],
      [
        "g",
        "ed"
      ],
      [
        "m",
        "on"
      ],
      [
        "p",
        "ass"
      ],
      [
        "w",
        "it"
      ],
      [
        "wi",
        "lt"
      ],
      [
        "CA",
        "MIL"
      ],
      [
        "ang",
        "er"
      ],
      [
        "je",
        "ct"
      ],
      [
        "CAMIL",
        "LO"
      ],
      [
        "H",
        "ath"
      ],
      [
        "b",
        "al"
      ],
      [
        "b",
        "us"
      ],
      [
        "h",
        "or"
      ],
      [
        "n",
        "ing"
      ],
      [
        "v",
        "il"
      ],
      [
        "in",
        "to"
      ],
      [
        "or",
        "y"
      ],
      [
        "re",
        "me"
      ],
      [
        "IN",
        "A"
      ],
      [
        "un",
        "t"
      ],
      [
        "gentle",
        "man"
      ],
      [
        "Pro",
        "vost"
      ],
      [
        "H",
        "er"
      ],
      [
        "f",
        "ight"
      ],
      [
        "k",
        "ne"
      ],
      [
        "o",
        "st"
      ],
      [
        "fa",
        "ul"
      ],
      [
        "B",
        "o"
      ],
      [
        "I",
        "AR"
      ],
      [
        "T",
        "y"
      ],
      [
        "b",
        "t"
      ],
      [
        "c",
        "la"
      ],
      [
        "m",
        "in"
      ],
      [
        "r",
        "ant"
      ],
      [
        "t",
        "urn"
      ],
      [
        "u",
        "d"
      ],
      [
        "er",
        "y"
      ],
      [
        "an",
        "other"
      ],
      [
        "ar",
        "y"
      ],
      [
        "st",
        "ri"
      ],
      [
        "se",
        "d"
      ],
      [
        "for",
        "m"
      ],
      [
        "ut",
        "y"
      ],
      [
        "do",
        "st"
      ],
      [
        "pro",
        "ve"
      ],
      [
        "gra",
        "ve"
      ],
      [
        "time",
        "s"
      ],
      [
        "tra",
        "it"
      ],
      [
        "FR",
        "IAR"
      ],
      [
        "E",
        "ven"
      ],
      [
        "T",
        "hi"
      ],
      [
        "b",
        "ri"
      ],
      [
        "c",
        "ess"
      ],
      [
        "e",
        "ven"
      ],
      [
        "e",
        "ech"
      ],
      [
        "g",
        "re"
      ],
      [
        "ke",
        "d"
      ],
      [
        "coun",
        "try"
      ],
      [
        "happ",
        "y"
      ],
      [
        "vere",
        "ign"
      ],
      [
        "C",
        "US"
      ],
      [
        "C",
        "OM"
      ],
      [
        "T",
        "OL"
      ],
      [
        "Y",
        "CUS"
      ],
      [
        "v",
        "a"
      ],
      [
        "so",
        "vereign"
      ],
      [
        "AU",
        "TOL"
      ],
      [
        "arm",
        "s"
      ],
      [
        "foo",
        "l"
      ],
      [
        "ban",
        "ish"
      ],
      [
        "fal",
        "se"
      ],
      [
        "COM",
        "INIUS"
      ],
      [
        "AUTOL",
        "YCUS"
      ],
      [
        "L",
        "E"
      ],
      [
        "m",
        "atter"
      ],
      [
        "r",
        "d"
      ],
      [
        "is",
        "ed"
      ],
      [
        "ha",
        "s"
      ],
      [
        "AR",
        "ENCE"
      ],
      [
        "LAN",
        "D"
      ],
      [
        "CL",
        "ARENCE"
      ],
      [
        "cont",
        "ent"
      ],
      [
        "Thi",
        "rd"
      ],
      [
        "c",
        "ra"
      ],
      [
        "i",
        "c"
      ],
      [
        "i",
        "re"
      ],
      [
        "s",
        "ound"
      ],
      [
        "w",
        "ish"
      ],
      [
        "is",
        "s"
      ],
      [
        "re",
        "ven"
      ],
      [
        "re",
        "ason"
      ],
      [
        "EN",
        "ES"
      ],
      [
        "po",
        "s"
      ],
      [
        "pl",
        "ay"
      ],
      [
        "pher",
        "d"
      ],
      [
        "A",
        "t"
      ],
      [
        "A",
        "re"
      ],
      [
        "B",
        "EN"
      ],
      [
        "N",
        "OR"
      ],
      [
        "l",
        "es"
      ],
      [
        "w",
        "a"
      ],
      [
        "en",
        "e"
      ],
      [
        "re",
        "ady"
      ],
      [
        "ho",
        "ly"
      ],
      [
        "com",
        "fort"
      ],
      [
        "sp",
        "ir"
      ],
      [
        "des",
        "er"
      ],
      [
        "swe",
        "ar"
      ],
      [
        "bre",
        "ath"
      ],
      [
        "Cl",
        "own"
      ],
      [
        "VOL",
        "IO"
      ],
      [
        "sle",
        "ep"
      ],
      [
        "tru",
        "th"
      ],
      [
        "Up",
        "on"
      ],
      [
        "BEN",
        "VOLIO"
      ],
      [
        "M",
        "ore"
      ],
      [
        "P",
        "A"
      ],
      [
        "c",
        "or"
      ],
      [
        "y",
        "ears"
      ],
      [
        "in",
        "deed"
      ],
      [
        "pat",
        "i"
      ],
      [
        ".",
        "'"
      ],
      [
        "C",
        "U"
      ],
      [
        "G",
        "entle"
      ],
      [
        "M",
        "urderer"
      ],
      [
        "W",
        "ould"
      ],
      [
        "w",
        "ant"
      ],
      [
        "y",
        "e"
      ],
      [
        "at",
        "or"
      ],
      [
        "st",
        "ra"
      ],
      [
        "ow",
        "s"
      ],
      [
        "ur",
        "y"
      ],
      [
        "so",
        "ld"
      ],
      [
        "ie",
        "ld"
      ],
      [
        "MER",
        "CU"
      ],
      [
        "dre",
        "am"
      ],
      [
        "MERCU",
        "TIO"
      ],
      [
        "J",
        "u"
      ],
      [
        "m",
        "b"
      ],
      [
        "v",
        "ent"
      ],
      [
        "v",
        "ill"
      ],
      [
        "z",
        "e"
      ],
      [
        "or",
        "i"
      ],
      [
        "on",
        "ly"
      ],
      [
        "one",
        "st"
      ],
      [
        "than",
        "k"
      ],
      [
        "vir",
        "t"
      ],
      [
        "P",
        "OM"
      ],
      [
        "T",
        "e"
      ],
      [
        "s",
        "end"
      ],
      [
        "s",
        "po"
      ],
      [
        "ou",
        "ch"
      ],
      [
        "en",
        "ough"
      ],
      [
        "li",
        "ves"
      ],
      [
        "ra",
        "ther"
      ],
      [
        "pe",
        "ct"
      ],
      [
        "go",
        "t"
      ],
      [
        "comm",
        "on"
      ],
      [
        "tal",
        "k"
      ],
      [
        "mad",
        "am"
      ],
      [
        "POM",
        "P"
      ],
      [
        "M",
        "IO"
      ],
      [
        "S",
        "h"
      ],
      [
        "c",
        "are"
      ],
      [
        "l",
        "ate"
      ],
      [
        "p",
        "ity"
      ],
      [
        "ar",
        "n"
      ],
      [
        "me",
        "d"
      ],
      [
        "sha",
        "lt"
      ],
      [
        "UL",
        "INA"
      ],
      [
        "Ser",
        "vant"
      ],
      [
        "PA",
        "ULINA"
      ],
      [
        "A",
        "l"
      ],
      [
        "R",
        "o"
      ],
      [
        "w",
        "ound"
      ],
      [
        "an",
        "ta"
      ],
      [
        "of",
        "fi"
      ],
      [
        "do",
        "m"
      ],
      [
        "fe",
        "ct"
      ],
      [
        "ma",
        "ster"
      ],
      [
        "la",
        "u"
      ],
      [
        "go",
        "ds"
      ],
      [
        "POMP",
        "EY"
      ],
      [
        "G",
        "ive"
      ],
      [
        "I",
        "X"
      ],
      [
        "N",
        "IA"
      ],
      [
        "P",
        "OL"
      ],
      [
        "W",
        "ere"
      ],
      [
        "p",
        "rom"
      ],
      [
        "w",
        "om"
      ],
      [
        "y",
        "ield"
      ],
      [
        "for",
        "ce"
      ],
      [
        "our",
        "s"
      ],
      [
        "wor",
        "n"
      ],
      [
        "lie",
        "ve"
      ],
      [
        "UM",
        "NIA"
      ],
      [
        "VOL",
        "UMNIA"
      ],
      [
        "bes",
        "eech"
      ],
      [
        "nat",
        "ure"
      ],
      [
        "gen",
        "er"
      ],
      [
        "Eng",
        "land"
      ],
      [
        "Ty",
        "bal"
      ],
      [
        "IX",
        "ENES"
      ],
      [
        "POL",
        "IXENES"
      ],
      [
        "B",
        "ER"
      ],
      [
        "b",
        "orn"
      ],
      [
        "c",
        "ity"
      ],
      [
        "h",
        "ang"
      ],
      [
        "re",
        "l"
      ],
      [
        "pr",
        "oud"
      ],
      [
        "ain",
        "t"
      ],
      [
        "ING",
        "S"
      ],
      [
        "ap",
        "pe"
      ],
      [
        "blood",
        "y"
      ],
      [
        "ving",
        "man"
      ],
      [
        "HA",
        "ST"
      ],
      [
        "eng",
        "er"
      ],
      [
        "Ser",
        "vingman"
      ],
      [
        "dou",
        "bt"
      ],
      [
        "sold",
        "i"
      ],
      [
        "Tybal",
        "t"
      ],
      [
        "HAST",
        "INGS"
      ],
      [
        "R",
        "ENCE"
      ],
      [
        "T",
        "ake"
      ],
      [
        "a",
        "ir"
      ],
      [
        "c",
        "re"
      ],
      [
        "h",
        "um"
      ],
      [
        "w",
        "ind"
      ],
      [
        "de",
        "m"
      ],
      [
        "li",
        "f"
      ],
      [
        "your",
        "s"
      ],
      [
        "ver",
        "s"
      ],
      [
        "que",
        "st"
      ],
      [
        "sub",
        "ject"
      ],
      [
        "LAU",
        "RENCE"
      ],
      [
        "gain",
        "st"
      ],
      [
        "A",
        "h"
      ],
      [
        "B",
        "Y"
      ],
      [
        "M",
        "ay"
      ],
      [
        "d",
        "anger"
      ],
      [
        "f",
        "ree"
      ],
      [
        "s",
        "m"
      ],
      [
        "w",
        "is"
      ],
      [
        "w",
        "ent"
      ],
      [
        "th",
        "ree"
      ],
      [
        "se",
        "en"
      ],
      [
        "un",
        "cle"
      ],
      [
        "ma",
        "jest"
      ],
      [
        "tr",
        "ess"
      ],
      [
        "comm",
        "and"
      ],
      [
        "Ju",
        "li"
      ],
      [
        ",",
        "'"
      ],
      [
        "C",
        "an"
      ],
      [
        "F",
        "F"
      ],
      [
        "I",
        "FF"
      ],
      [
        "L",
        "ook"
      ],
      [
        "M",
        "O"
      ],
      [
        "i",
        "gh"
      ],
      [
        "o",
        "ath"
      ],
      [
        "s",
        "in"
      ],
      [
        "in",
        "ter"
      ],
      [
        "as",
        "k"
      ],
      [
        "de",
        "li"
      ],
      [
        "un",
        "es"
      ],
      [
        "fa",
        "ith"
      ],
      [
        "day",
        "s"
      ],
      [
        "child",
        "ren"
      ],
      [
        "CL",
        "IFF"
      ],
      [
        "UM",
        "BER"
      ],
      [
        "tend",
        "er"
      ],
      [
        "TH",
        "UMBER"
      ],
      [
        "bus",
        "iness"
      ],
      [
        "trait",
        "or"
      ],
      [
        "NOR",
        "THUMBER"
      ],
      [
        "majest",
        "y"
      ],
      [
        "NORTHUMBER",
        "LAND"
      ],
      [
        "H",
        "ast"
      ],
      [
        "I",
        "D"
      ],
      [
        "M",
        "on"
      ],
      [
        "S",
        "ay"
      ],
      [
        "b",
        "it"
      ],
      [
        "s",
        "ight"
      ],
      [
        "s",
        "word"
      ],
      [
        "s",
        "ister"
      ],
      [
        "me",
        "ans"
      ],
      [
        "ent",
        "er"
      ],
      [
        "ge",
        "ther"
      ],
      [
        "su",
        "re"
      ],
      [
        "bl",
        "es"
      ],
      [
        "bre",
        "ak"
      ],
      [
        "hast",
        "e"
      ],
      [
        "There",
        "fore"
      ],
      [
        "just",
        "ice"
      ],
      [
        "C",
        "om"
      ],
      [
        "S",
        "ome"
      ],
      [
        "h",
        "onest"
      ],
      [
        "n",
        "urse"
      ],
      [
        "r",
        "ance"
      ],
      [
        "s",
        "ing"
      ],
      [
        "an",
        "ca"
      ],
      [
        "re",
        "ad"
      ],
      [
        "be",
        "a"
      ],
      [
        "ch",
        "ange"
      ],
      [
        "your",
        "self"
      ],
      [
        "ent",
        "s"
      ],
      [
        "per",
        "son"
      ],
      [
        "AN",
        "NE"
      ],
      [
        "mer",
        "cy"
      ],
      [
        "cour",
        "t"
      ],
      [
        "dra",
        "w"
      ],
      [
        "C",
        "on"
      ],
      [
        "C",
        "lif"
      ],
      [
        "L",
        "e"
      ],
      [
        "L",
        "i"
      ],
      [
        "P",
        "R"
      ],
      [
        "b",
        "at"
      ],
      [
        "m",
        "s"
      ],
      [
        "se",
        "a"
      ],
      [
        "of",
        "t"
      ],
      [
        "with",
        "in"
      ],
      [
        "su",
        "it"
      ],
      [
        "thing",
        "s"
      ],
      [
        "wo",
        "e"
      ],
      [
        "INC",
        "E"
      ],
      [
        "pla",
        "in"
      ],
      [
        "ret",
        "urn"
      ],
      [
        "vill",
        "ain"
      ],
      [
        "Juli",
        "et"
      ],
      [
        "Clif",
        "ford"
      ],
      [
        "PR",
        "INCE"
      ],
      [
        "B",
        "ol"
      ],
      [
        "D",
        "id"
      ],
      [
        "W",
        "as"
      ],
      [
        "a",
        "the"
      ],
      [
        "f",
        "oul"
      ],
      [
        "f",
        "arewell"
      ],
      [
        "v",
        "is"
      ],
      [
        "on",
        "es"
      ],
      [
        "to",
        "gether"
      ],
      [
        "ha",
        "l"
      ],
      [
        "ing",
        "broke"
      ],
      [
        "we",
        "ar"
      ],
      [
        "su",
        "e"
      ],
      [
        "po",
        "int"
      ],
      [
        "sa",
        "w"
      ],
      [
        "war",
        "rant"
      ],
      [
        "look",
        "s"
      ],
      [
        "lie",
        "ge"
      ],
      [
        "GR",
        "E"
      ],
      [
        "Te",
        "ll"
      ],
      [
        "Bol",
        "ingbroke"
      ],
      [
        "R",
        "e"
      ],
      [
        "f",
        "ly"
      ],
      [
        "f",
        "ound"
      ],
      [
        "k",
        "iss"
      ],
      [
        "p",
        "ain"
      ],
      [
        "to",
        "ld"
      ],
      [
        "ha",
        "m"
      ],
      [
        "be",
        "at"
      ],
      [
        "ad",
        "v"
      ],
      [
        "us",
        "h"
      ],
      [
        "tr",
        "ust"
      ],
      [
        "go",
        "ld"
      ],
      [
        "sa",
        "ve"
      ],
      [
        "wor",
        "thy"
      ],
      [
        "vo",
        "i"
      ],
      [
        "pur",
        "pose"
      ],
      [
        "wel",
        "come"
      ],
      [
        "A",
        "L"
      ],
      [
        "F",
        "arewell"
      ],
      [
        "c",
        "urse"
      ],
      [
        "g",
        "row"
      ],
      [
        "h",
        "ard"
      ],
      [
        "t",
        "it"
      ],
      [
        "ck",
        "s"
      ],
      [
        "ne",
        "ar"
      ],
      [
        "con",
        "s"
      ],
      [
        "hea",
        "vy"
      ],
      [
        "ond",
        "er"
      ],
      [
        "Mon",
        "ta"
      ],
      [
        "hal",
        "f"
      ],
      [
        "F",
        "rance"
      ],
      [
        "G",
        "l"
      ],
      [
        "H",
        "ad"
      ],
      [
        "S",
        "en"
      ],
      [
        "f",
        "it"
      ],
      [
        "i",
        "ly"
      ],
      [
        "l",
        "ing"
      ],
      [
        "p",
        "en"
      ],
      [
        "p",
        "ast"
      ],
      [
        "r",
        "un"
      ],
      [
        "s",
        "it"
      ],
      [
        "de",
        "f"
      ],
      [
        "know",
        "n"
      ],
      [
        "fri",
        "ar"
      ],
      [
        "Who",
        "se"
      ],
      [
        "gr",
        "ound"
      ],
      [
        "eng",
        "th"
      ],
      [
        "sla",
        "in"
      ],
      [
        "hor",
        "se"
      ],
      [
        "F",
        "L"
      ],
      [
        "F",
        "ID"
      ],
      [
        "M",
        "ess"
      ],
      [
        "s",
        "ad"
      ],
      [
        "s",
        "il"
      ],
      [
        "s",
        "worn"
      ],
      [
        "w",
        "all"
      ],
      [
        "ou",
        "th"
      ],
      [
        "he",
        "ir"
      ],
      [
        "be",
        "l"
      ],
      [
        "le",
        "ft"
      ],
      [
        "ut",
        "e"
      ],
      [
        "so",
        "on"
      ],
      [
        "thy",
        "self"
      ],
      [
        "OR",
        "IZ"
      ],
      [
        "let",
        "ter"
      ],
      [
        "Thou",
        "gh"
      ],
      [
        "AU",
        "FID"
      ],
      [
        "foo",
        "t"
      ],
      [
        "shi",
        "p"
      ],
      [
        "gener",
        "al"
      ],
      [
        "FL",
        "ORIZ"
      ],
      [
        "Mess",
        "enger"
      ],
      [
        "AUFID",
        "IUS"
      ],
      [
        "FLORIZ",
        "EL"
      ],
      [
        "C",
        "lau"
      ],
      [
        "J",
        "o"
      ],
      [
        "O",
        "ne"
      ],
      [
        "c",
        "ry"
      ],
      [
        "d",
        "ow"
      ],
      [
        "f",
        "ol"
      ],
      [
        "g",
        "ro"
      ],
      [
        "r",
        "ue"
      ],
      [
        "w",
        "at"
      ],
      [
        "ce",
        "ed"
      ],
      [
        "de",
        "st"
      ],
      [
        "with",
        "out"
      ],
      [
        "lo",
        "st"
      ],
      [
        "The",
        "se"
      ],
      [
        "sa",
        "me"
      ],
      [
        "wor",
        "th"
      ],
      [
        "di",
        "o"
      ],
      [
        "use",
        "d"
      ],
      [
        "si",
        "de"
      ],
      [
        "think",
        "s"
      ],
      [
        "str",
        "ange"
      ],
      [
        "che",
        "s"
      ],
      [
        "pa",
        "ir"
      ],
      [
        "cour",
        "se"
      ],
      [
        "thr",
        "ough"
      ],
      [
        "rep",
        "ort"
      ],
      [
        "cla",
        "im"
      ],
      [
        "reven",
        "ge"
      ],
      [
        "Sh",
        "ould"
      ],
      [
        "Clau",
        "dio"
      ],
      [
        "W",
        "hi"
      ],
      [
        "c",
        "old"
      ],
      [
        "e",
        "cut"
      ],
      [
        "g",
        "a"
      ],
      [
        "j",
        "ud"
      ],
      [
        "o",
        "b"
      ],
      [
        "he",
        "d"
      ],
      [
        "it",
        "self"
      ],
      [
        "be",
        "lieve"
      ],
      [
        "de",
        "ep"
      ],
      [
        "so",
        "m"
      ],
      [
        "lo",
        "ss"
      ],
      [
        "am",
        "ill"
      ],
      [
        "end",
        "s"
      ],
      [
        "ER",
        "S"
      ],
      [
        "um",
        "ber"
      ],
      [
        "qu",
        "ar"
      ],
      [
        "ex",
        "ecut"
      ],
      [
        "str",
        "ong"
      ],
      [
        "gr",
        "ant"
      ],
      [
        "char",
        "ge"
      ],
      [
        "qui",
        "ck"
      ],
      [
        "Pr",
        "ay"
      ],
      [
        "faul",
        "t"
      ],
      [
        "ene",
        "my"
      ],
      [
        "Gentle",
        "man"
      ],
      [
        "Li",
        "ke"
      ],
      [
        "Sen",
        "ator"
      ],
      [
        "C",
        "IUS"
      ],
      [
        "C",
        "ap"
      ],
      [
        "D",
        "e"
      ],
      [
        "M",
        "e"
      ],
      [
        "g",
        "s"
      ],
      [
        "i",
        "de"
      ],
      [
        "w",
        "ise"
      ],
      [
        "ou",
        "ce"
      ],
      [
        "you",
        "th"
      ],
      [
        "do",
        "es"
      ],
      [
        "lo",
        "se"
      ],
      [
        "con",
        "su"
      ],
      [
        "pr",
        "ess"
      ],
      [
        "bo",
        "ld"
      ],
      [
        "say",
        "s"
      ],
      [
        "pl",
        "uck"
      ],
      [
        "ser",
        "vice"
      ],
      [
        "MAR",
        "CIUS"
      ],
      [
        "thought",
        "s"
      ],
      [
        "She",
        "pherd"
      ],
      [
        "Monta",
        "gue"
      ],
      [
        "Gl",
        "ouce"
      ],
      [
        "C",
        "amill"
      ],
      [
        "P",
        "ET"
      ],
      [
        "T",
        "R"
      ],
      [
        "b",
        "ir"
      ],
      [
        "c",
        "al"
      ],
      [
        "f",
        "et"
      ],
      [
        "f",
        "ur"
      ],
      [
        "n",
        "er"
      ],
      [
        "to",
        "ward"
      ],
      [
        "he",
        "ll"
      ],
      [
        "ing",
        "ham"
      ],
      [
        "al",
        "one"
      ],
      [
        "fa",
        "st"
      ],
      [
        "um",
        "p"
      ],
      [
        "ast",
        "er"
      ],
      [
        "fi",
        "re"
      ],
      [
        "des",
        "ire"
      ],
      [
        "mar",
        "ry"
      ],
      [
        "coun",
        "ter"
      ],
      [
        "coun",
        "sel"
      ],
      [
        "Se",
        "e"
      ],
      [
        "op",
        "en"
      ],
      [
        "hour",
        "s"
      ],
      [
        "Camill",
        "o"
      ],
      [
        "!",
        "'"
      ],
      [
        "A",
        "way"
      ],
      [
        "A",
        "gainst"
      ],
      [
        "B",
        "uck"
      ],
      [
        "C",
        "a"
      ],
      [
        "H",
        "a"
      ],
      [
        "M",
        "ad"
      ],
      [
        "V",
        "ol"
      ],
      [
        "a",
        "ct"
      ],
      [
        "g",
        "es"
      ],
      [
        "m",
        "urder"
      ],
      [
        "r",
        "is"
      ],
      [
        "v",
        "al"
      ],
      [
        "w",
        "d"
      ],
      [
        "be",
        "hold"
      ],
      [
        "le",
        "ad"
      ],
      [
        "le",
        "arn"
      ],
      [
        "fe",
        "el"
      ],
      [
        "ER",
        "D"
      ],
      [
        "know",
        "s"
      ],
      [
        "fi",
        "eld"
      ],
      [
        "fear",
        "ful"
      ],
      [
        "stand",
        "s"
      ],
      [
        "stra",
        "ight"
      ],
      [
        "went",
        "y"
      ],
      [
        "Hast",
        "ings"
      ],
      [
        "Glouce",
        "ster"
      ],
      [
        "Buck",
        "ingham"
      ],
      [
        "Mad",
        "am"
      ],
      [
        "A",
        "u"
      ],
      [
        "D",
        "IO"
      ],
      [
        "H",
        "OR"
      ],
      [
        "a",
        "u"
      ],
      [
        "d",
        "are"
      ],
      [
        "o",
        "be"
      ],
      [
        "p",
        "ed"
      ],
      [
        "w",
        "ret"
      ],
      [
        "ri",
        "ch"
      ],
      [
        "pr",
        "of"
      ],
      [
        "mo",
        "ck"
      ],
      [
        "love",
        "d"
      ],
      [
        "ple",
        "asure"
      ],
      [
        "Nor",
        "fol"
      ],
      [
        "voi",
        "ces"
      ],
      [
        "Norfol",
        "k"
      ],
      [
        "H",
        "ER"
      ],
      [
        "T",
        "ill"
      ],
      [
        "c",
        "ro"
      ],
      [
        "c",
        "ri"
      ],
      [
        "d",
        "ish"
      ],
      [
        "e",
        "ither"
      ],
      [
        "i",
        "g"
      ],
      [
        "s",
        "at"
      ],
      [
        "t",
        "wenty"
      ],
      [
        "in",
        "str"
      ],
      [
        "he",
        "s"
      ],
      [
        "be",
        "ll"
      ],
      [
        "ch",
        "o"
      ],
      [
        "ch",
        "ance"
      ],
      [
        "de",
        "vil"
      ],
      [
        "su",
        "c"
      ],
      [
        "su",
        "p"
      ],
      [
        "sh",
        "ort"
      ],
      [
        "mo",
        "ve"
      ],
      [
        "te",
        "st"
      ],
      [
        "wor",
        "k"
      ],
      [
        "spe",
        "ed"
      ],
      [
        "si",
        "ck"
      ],
      [
        "si",
        "gn"
      ],
      [
        "mar",
        "k"
      ],
      [
        "br",
        "ought"
      ],
      [
        "pre",
        "t"
      ],
      [
        "mis",
        "tress"
      ],
      [
        "AU",
        "MER"
      ],
      [
        "che",
        "d"
      ],
      [
        "ser",
        "ve"
      ],
      [
        "res",
        "ol"
      ],
      [
        "gu",
        "il"
      ],
      [
        "high",
        "ness"
      ],
      [
        "gi",
        "ven"
      ],
      [
        "reme",
        "mber"
      ],
      [
        "spir",
        "it"
      ],
      [
        "deli",
        "ver"
      ],
      [
        "AUMER",
        "LE"
      ],
      [
        "C",
        "h"
      ],
      [
        "L",
        "anca"
      ],
      [
        "b",
        "ow"
      ],
      [
        "b",
        "ound"
      ],
      [
        "b",
        "urn"
      ],
      [
        "e",
        "ach"
      ],
      [
        "f",
        "er"
      ],
      [
        "f",
        "id"
      ],
      [
        "h",
        "arm"
      ],
      [
        "i",
        "ous"
      ],
      [
        "l",
        "ow"
      ],
      [
        "s",
        "es"
      ],
      [
        "t",
        "ro"
      ],
      [
        "t",
        "ouch"
      ],
      [
        "u",
        "b"
      ],
      [
        "me",
        "t"
      ],
      [
        "lo",
        "ves"
      ],
      [
        "id",
        "es"
      ],
      [
        "Th",
        "us"
      ],
      [
        "po",
        "st"
      ],
      [
        "il",
        "s"
      ],
      [
        "mar",
        "ried"
      ],
      [
        "str",
        "ength"
      ],
      [
        "fl",
        "atter"
      ],
      [
        "conf",
        "ess"
      ],
      [
        "tem",
        "pt"
      ],
      [
        "pati",
        "ence"
      ],
      [
        "Ro",
        "man"
      ],
      [
        "Lanca",
        "ster"
      ],
      [
        "L",
        "ady"
      ],
      [
        "M",
        "aster"
      ],
      [
        "P",
        "o"
      ],
      [
        "P",
        "om"
      ],
      [
        "c",
        "ent"
      ],
      [
        "i",
        "ci"
      ],
      [
        "s",
        "ur"
      ],
      [
        "v",
        "our"
      ],
      [
        "en",
        "em"
      ],
      [
        "ord",
        "er"
      ],
      [
        "fe",
        "ction"
      ],
      [
        "lo",
        "ving"
      ],
      [
        "sa",
        "ke"
      ],
      [
        "ca",
        "st"
      ],
      [
        "pro",
        "p"
      ],
      [
        "heart",
        "s"
      ],
      [
        "bea",
        "uty"
      ],
      [
        "enem",
        "ies"
      ],
      [
        "C",
        "LAU"
      ],
      [
        "M",
        "ost"
      ],
      [
        "Y",
        "e"
      ],
      [
        "a",
        "ther"
      ],
      [
        "b",
        "our"
      ],
      [
        "d",
        "am"
      ],
      [
        "g",
        "ates"
      ],
      [
        "i",
        "ed"
      ],
      [
        "p",
        "ra"
      ],
      [
        "th",
        "ri"
      ],
      [
        "en",
        "ch"
      ],
      [
        "st",
        "ir"
      ],
      [
        "be",
        "come"
      ],
      [
        "li",
        "ps"
      ],
      [
        "we",
        "en"
      ],
      [
        "et",
        "er"
      ],
      [
        "all",
        "y"
      ],
      [
        "mor",
        "tal"
      ],
      [
        "bo",
        "som"
      ],
      [
        "can",
        "st"
      ],
      [
        "some",
        "thing"
      ],
      [
        "too",
        "k"
      ],
      [
        "bre",
        "athe"
      ],
      [
        "mis",
        "s"
      ],
      [
        "heaven",
        "s"
      ],
      [
        "pa",
        "le"
      ],
      [
        "co",
        "ver"
      ],
      [
        "cer",
        "tain"
      ],
      [
        "stri",
        "ke"
      ],
      [
        "MIO",
        "NE"
      ],
      [
        "CLIFF",
        "ORD"
      ],
      [
        "tit",
        "le"
      ],
      [
        "HER",
        "MIONE"
      ],
      [
        "CLAU",
        "DIO"
      ],
      [
        "L",
        "ORD"
      ],
      [
        "b",
        "row"
      ],
      [
        "b",
        "lack"
      ],
      [
        "b",
        "unes"
      ],
      [
        "d",
        "ro"
      ],
      [
        "f",
        "our"
      ],
      [
        "w",
        "on"
      ],
      [
        "is",
        "t"
      ],
      [
        "is",
        "hed"
      ],
      [
        "wi",
        "xt"
      ],
      [
        "ch",
        "oo"
      ],
      [
        "ow",
        "ard"
      ],
      [
        "ent",
        "reat"
      ],
      [
        "ra",
        "ge"
      ],
      [
        "su",
        "ff"
      ],
      [
        "po",
        "ison"
      ],
      [
        "them",
        "selves"
      ],
      [
        "sa",
        "fe"
      ],
      [
        "We",
        "l"
      ],
      [
        "ment",
        "s"
      ],
      [
        "fo",
        "e"
      ],
      [
        "soul",
        "s"
      ],
      [
        "gri",
        "e"
      ],
      [
        "wom",
        "en"
      ],
      [
        "appe",
        "ar"
      ],
      [
        "consu",
        "l"
      ],
      [
        "Au",
        "fid"
      ],
      [
        "Aufid",
        "ius"
      ],
      [
        "A",
        "G"
      ],
      [
        "H",
        "N"
      ],
      [
        "I",
        "T"
      ],
      [
        "J",
        "O"
      ],
      [
        "P",
        "S"
      ],
      [
        "P",
        "er"
      ],
      [
        "a",
        "w"
      ],
      [
        "b",
        "ar"
      ],
      [
        "c",
        "red"
      ],
      [
        "d",
        "d"
      ],
      [
        "d",
        "den"
      ],
      [
        "e",
        "per"
      ],
      [
        "h",
        "ood"
      ],
      [
        "l",
        "ad"
      ],
      [
        "m",
        "outh"
      ],
      [
        "u",
        "es"
      ],
      [
        "w",
        "oo"
      ],
      [
        "th",
        "row"
      ],
      [
        "in",
        "ed"
      ],
      [
        "is",
        "sue"
      ],
      [
        "he",
        "ld"
      ],
      [
        "ce",
        "d"
      ],
      [
        "ce",
        "pt"
      ],
      [
        "as",
        "h"
      ],
      [
        "li",
        "ant"
      ],
      [
        "ri",
        "age"
      ],
      [
        "al",
        "ready"
      ],
      [
        "ho",
        "p"
      ],
      [
        "ho",
        "t"
      ],
      [
        "see",
        "k"
      ],
      [
        "bre",
        "ast"
      ],
      [
        "Mar",
        "ry"
      ],
      [
        "che",
        "e"
      ],
      [
        "Here",
        "ford"
      ],
      [
        "pose",
        "d"
      ],
      [
        "ceive",
        "d"
      ],
      [
        "Al",
        "as"
      ],
      [
        "danger",
        "ous"
      ],
      [
        "bat",
        "tle"
      ],
      [
        "fur",
        "ther"
      ],
      [
        "suff",
        "er"
      ],
      [
        "JO",
        "HN"
      ],
      [
        "C",
        "ori"
      ],
      [
        "G",
        "re"
      ],
      [
        "S",
        "ince"
      ],
      [
        "T",
        "ower"
      ],
      [
        "a",
        "unt"
      ],
      [
        "b",
        "ad"
      ],
      [
        "b",
        "ly"
      ],
      [
        "c",
        "ure"
      ],
      [
        "d",
        "uty"
      ],
      [
        "g",
        "ave"
      ],
      [
        "k",
        "new"
      ],
      [
        "m",
        "it"
      ],
      [
        "m",
        "ond"
      ],
      [
        "p",
        "lo"
      ],
      [
        "r",
        "ing"
      ],
      [
        "t",
        "was"
      ],
      [
        "w",
        "ast"
      ],
      [
        "an",
        "us"
      ],
      [
        "on",
        "s"
      ],
      [
        "st",
        "re"
      ],
      [
        "re",
        "ma"
      ],
      [
        "hi",
        "p"
      ],
      [
        "al",
        "th"
      ],
      [
        "us",
        "ur"
      ],
      [
        "ne",
        "xt"
      ],
      [
        "po",
        "ss"
      ],
      [
        "king",
        "s"
      ],
      [
        "ci",
        "ent"
      ],
      [
        "ol",
        "anus"
      ],
      [
        "Be",
        "ing"
      ],
      [
        "jo",
        "in"
      ],
      [
        "fl",
        "es"
      ],
      [
        "wr",
        "it"
      ],
      [
        "Rich",
        "mond"
      ],
      [
        "comp",
        "any"
      ],
      [
        "wound",
        "s"
      ],
      [
        "soldi",
        "ers"
      ],
      [
        "Cori",
        "olanus"
      ],
      [
        "L",
        "o"
      ],
      [
        "S",
        "pe"
      ],
      [
        "T",
        "ES"
      ],
      [
        "g",
        "er"
      ],
      [
        "i",
        "er"
      ],
      [
        "p",
        "al"
      ],
      [
        "p",
        "ie"
      ],
      [
        "t",
        "were"
      ],
      [
        "w",
        "h"
      ],
      [
        "or",
        "ge"
      ],
      [
        "of",
        "ten"
      ],
      [
        "ed",
        "s"
      ],
      [
        "with",
        "al"
      ],
      [
        "al",
        "ong"
      ],
      [
        "ra",
        "h"
      ],
      [
        "su",
        "m"
      ],
      [
        "mor",
        "ning"
      ],
      [
        "CA",
        "TES"
      ],
      [
        "son",
        "s"
      ],
      [
        "vi",
        "ct"
      ],
      [
        "Be",
        "fore"
      ],
      [
        "mar",
        "riage"
      ],
      [
        "vo",
        "ice"
      ],
      [
        "Mar",
        "gar"
      ],
      [
        "pres",
        "ence"
      ],
      [
        "bra",
        "ve"
      ],
      [
        "Un",
        "less"
      ],
      [
        "virt",
        "ue"
      ],
      [
        "quar",
        "rel"
      ],
      [
        "sat",
        "is"
      ],
      [
        "CATES",
        "BY"
      ],
      [
        "Margar",
        "et"
      ],
      [
        "B",
        "es"
      ],
      [
        "L",
        "ond"
      ],
      [
        "M",
        "ake"
      ],
      [
        "P",
        "l"
      ],
      [
        "f",
        "ra"
      ],
      [
        "f",
        "ill"
      ],
      [
        "h",
        "ind"
      ],
      [
        "k",
        "n"
      ],
      [
        "k",
        "ins"
      ],
      [
        "l",
        "st"
      ],
      [
        "m",
        "as"
      ],
      [
        "p",
        "ay"
      ],
      [
        "t",
        "or"
      ],
      [
        "w",
        "he"
      ],
      [
        "w",
        "onder"
      ],
      [
        "ar",
        "is"
      ],
      [
        "se",
        "at"
      ],
      [
        "re",
        "quest"
      ],
      [
        "for",
        "get"
      ],
      [
        "ere",
        "d"
      ],
      [
        "The",
        "ir"
      ],
      [
        "ne",
        "ither"
      ],
      [
        "con",
        "sent"
      ],
      [
        "ta",
        "le"
      ],
      [
        "di",
        "re"
      ],
      [
        "than",
        "ks"
      ],
      [
        "war",
        "s"
      ],
      [
        "thr",
        "one"
      ],
      [
        "GR",
        "EY"
      ],
      [
        "spo",
        "ke"
      ],
      [
        "Lond",
        "on"
      ],
      [
        "B",
        "AL"
      ],
      [
        "C",
        "all"
      ],
      [
        "I",
        "sa"
      ],
      [
        "I",
        "AN"
      ],
      [
        "K",
        "e"
      ],
      [
        "L",
        "est"
      ],
      [
        "M",
        "er"
      ],
      [
        "M",
        "ust"
      ],
      [
        "P",
        "e"
      ],
      [
        "P",
        "aris"
      ],
      [
        "R",
        "IV"
      ],
      [
        "a",
        "bo"
      ],
      [
        "b",
        "la"
      ],
      [
        "b",
        "ury"
      ],
      [
        "h",
        "ur"
      ],
      [
        "i",
        "or"
      ],
      [
        "k",
        "no"
      ],
      [
        "l",
        "s"
      ],
      [
        "s",
        "pr"
      ],
      [
        "u",
        "ous"
      ],
      [
        "w",
        "in"
      ],
      [
        "on",
        "a"
      ],
      [
        "st",
        "op"
      ],
      [
        "ir",
        "es"
      ],
      [
        "ow",
        "ers"
      ],
      [
        "we",
        "ak"
      ],
      [
        "go",
        "es"
      ],
      [
        "um",
        "pet"
      ],
      [
        "Be",
        "cause"
      ],
      [
        "ac",
        "tion"
      ],
      [
        "BR",
        "A"
      ],
      [
        "sc",
        "ar"
      ],
      [
        "head",
        "s"
      ],
      [
        "deed",
        "s"
      ],
      [
        "mi",
        "le"
      ],
      [
        "cl",
        "ou"
      ],
      [
        "clo",
        "se"
      ],
      [
        "bri",
        "ef"
      ],
      [
        "poss",
        "ess"
      ],
      [
        "Spe",
        "ak"
      ],
      [
        "BAL",
        "T"
      ],
      [
        "RIV",
        "ERS"
      ],
      [
        "B",
        "O"
      ],
      [
        "E",
        "re"
      ],
      [
        "G",
        "e"
      ],
      [
        "G",
        "AU"
      ],
      [
        "P",
        "a"
      ],
      [
        "S",
        "uch"
      ],
      [
        "Y",
        "es"
      ],
      [
        "a",
        "de"
      ],
      [
        "b",
        "ook"
      ],
      [
        "c",
        "ol"
      ],
      [
        "c",
        "reat"
      ],
      [
        "c",
        "oward"
      ],
      [
        "d",
        "ark"
      ],
      [
        "m",
        "us"
      ],
      [
        "p",
        "ite"
      ],
      [
        "r",
        "up"
      ],
      [
        "r",
        "ough"
      ],
      [
        "t",
        "ent"
      ],
      [
        "v",
        "ow"
      ],
      [
        "in",
        "a"
      ],
      [
        "en",
        "ded"
      ],
      [
        "ar",
        "l"
      ],
      [
        "ar",
        "ry"
      ],
      [
        "me",
        "s"
      ],
      [
        "to",
        "wn"
      ],
      [
        "ha",
        "ving"
      ],
      [
        "ce",
        "ll"
      ],
      [
        "li",
        "ber"
      ],
      [
        "un",
        "k"
      ],
      [
        "la",
        "ment"
      ],
      [
        "su",
        "dden"
      ],
      [
        "king",
        "dom"
      ],
      [
        "bl",
        "ess"
      ],
      [
        "wor",
        "se"
      ],
      [
        "di",
        "v"
      ],
      [
        "di",
        "es"
      ],
      [
        "EL",
        "BO"
      ],
      [
        "vi",
        "ol"
      ],
      [
        "ba",
        "se"
      ],
      [
        "bet",
        "ween"
      ],
      [
        "res",
        "pect"
      ],
      [
        "Nor",
        "th"
      ],
      [
        "might",
        "y"
      ],
      [
        "tre",
        "m"
      ],
      [
        "law",
        "ful"
      ],
      [
        "nat",
        "ur"
      ],
      [
        "seem",
        "s"
      ],
      [
        "bu",
        "y"
      ],
      [
        "Bo",
        "th"
      ],
      [
        "va",
        "liant"
      ],
      [
        "offi",
        "ce"
      ],
      [
        "wat",
        "er"
      ],
      [
        "ump",
        "h"
      ],
      [
        "Wel",
        "come"
      ],
      [
        "Ge",
        "orge"
      ],
      [
        "GAU",
        "NT"
      ],
      [
        "ELBO",
        "W"
      ],
      [
        "A",
        "M"
      ],
      [
        "H",
        "old"
      ],
      [
        "O",
        "x"
      ],
      [
        "T",
        "Y"
      ],
      [
        "T",
        "ho"
      ],
      [
        "b",
        "ur"
      ],
      [
        "c",
        "ked"
      ],
      [
        "e",
        "w"
      ],
      [
        "e",
        "as"
      ],
      [
        "i",
        "ma"
      ],
      [
        "p",
        "are"
      ],
      [
        "p",
        "atch"
      ],
      [
        "s",
        "k"
      ],
      [
        "w",
        "atch"
      ],
      [
        "z",
        "ed"
      ],
      [
        "an",
        "cient"
      ],
      [
        "at",
        "tend"
      ],
      [
        "ve",
        "l"
      ],
      [
        "hi",
        "de"
      ],
      [
        "ti",
        "l"
      ],
      [
        "ver",
        "n"
      ],
      [
        "ge",
        "st"
      ],
      [
        "ca",
        "se"
      ],
      [
        "spe",
        "ech"
      ],
      [
        "way",
        "s"
      ],
      [
        "ap",
        "pro"
      ],
      [
        "did",
        "st"
      ],
      [
        "Who",
        "m"
      ],
      [
        "gentle",
        "men"
      ],
      [
        "NT",
        "AG"
      ],
      [
        "tri",
        "bunes"
      ],
      [
        "tri",
        "umph"
      ],
      [
        "beg",
        "in"
      ],
      [
        "prince",
        "ly"
      ],
      [
        "dre",
        "ad"
      ],
      [
        "faul",
        "ts"
      ],
      [
        "dem",
        "n"
      ],
      [
        "MO",
        "NTAG"
      ],
      [
        "bit",
        "ter"
      ],
      [
        "vis",
        "it"
      ],
      [
        "fles",
        "h"
      ],
      [
        "Ox",
        "ford"
      ],
      [
        "MONTAG",
        "UE"
      ],
      [
        "A",
        "r"
      ],
      [
        "S",
        "aint"
      ],
      [
        "T",
        "EN"
      ],
      [
        "a",
        "id"
      ],
      [
        "a",
        "ven"
      ],
      [
        "c",
        "c"
      ],
      [
        "c",
        "li"
      ],
      [
        "e",
        "ase"
      ],
      [
        "f",
        "rown"
      ],
      [
        "f",
        "ond"
      ],
      [
        "i",
        "le"
      ],
      [
        "i",
        "fe"
      ],
      [
        "m",
        "our"
      ],
      [
        "p",
        "it"
      ],
      [
        "s",
        "al"
      ],
      [
        "u",
        "ct"
      ],
      [
        "in",
        "f"
      ],
      [
        "st",
        "ain"
      ],
      [
        "he",
        "mi"
      ],
      [
        "de",
        "part"
      ],
      [
        "pe",
        "y"
      ],
      [
        "fe",
        "ast"
      ],
      [
        "one",
        "y"
      ],
      [
        "pr",
        "in"
      ],
      [
        "tr",
        "ou"
      ],
      [
        "ion",
        "s"
      ],
      [
        "was",
        "h"
      ],
      [
        "then",
        "ce"
      ],
      [
        "ure",
        "d"
      ],
      [
        "vi",
        "le"
      ],
      [
        "si",
        "gh"
      ],
      [
        "AN",
        "IO"
      ],
      [
        "ba",
        "wd"
      ],
      [
        "coun",
        "t"
      ],
      [
        "sc",
        "orn"
      ],
      [
        "che",
        "er"
      ],
      [
        "ser",
        "vant"
      ],
      [
        "mer",
        "ry"
      ],
      [
        "pray",
        "ers"
      ],
      [
        "sla",
        "ughter"
      ],
      [
        "den",
        "y"
      ],
      [
        "St",
        "and"
      ],
      [
        "Bo",
        "hemi"
      ],
      [
        "pati",
        "ent"
      ],
      [
        "def",
        "end"
      ],
      [
        "umber",
        "land"
      ],
      [
        "execut",
        "ion"
      ],
      [
        "TR",
        "ANIO"
      ],
      [
        "HOR",
        "TEN"
      ],
      [
        "suc",
        "cess"
      ],
      [
        "pret",
        "ty"
      ],
      [
        "Pom",
        "pey"
      ],
      [
        "Pe",
        "ace"
      ],
      [
        "North",
        "umberland"
      ],
      [
        "HORTEN",
        "S"
      ],
      [
        "G",
        "IL"
      ],
      [
        "O",
        "P"
      ],
      [
        "P",
        "ERD"
      ],
      [
        "R",
        "GIL"
      ],
      [
        "a",
        "ck"
      ],
      [
        "a",
        "while"
      ],
      [
        "c",
        "en"
      ],
      [
        "e",
        "th"
      ],
      [
        "g",
        "ing"
      ],
      [
        "h",
        "ar"
      ],
      [
        "l",
        "ar"
      ],
      [
        "s",
        "wi"
      ],
      [
        "s",
        "oft"
      ],
      [
        "u",
        "a"
      ],
      [
        "th",
        "ither"
      ],
      [
        "at",
        "s"
      ],
      [
        "st",
        "ant"
      ],
      [
        "le",
        "y"
      ],
      [
        "wi",
        "dow"
      ],
      [
        "ch",
        "er"
      ],
      [
        "li",
        "ving"
      ],
      [
        "so",
        "l"
      ],
      [
        "ti",
        "c"
      ],
      [
        "fa",
        "vour"
      ],
      [
        "tr",
        "umpet"
      ],
      [
        "te",
        "ar"
      ],
      [
        "com",
        "ing"
      ],
      [
        "off",
        "ence"
      ],
      [
        "VI",
        "RGIL"
      ],
      [
        "cha",
        "mber"
      ],
      [
        "present",
        "ly"
      ],
      [
        "anta",
        "ge"
      ],
      [
        "prom",
        "ise"
      ],
      [
        "sm",
        "all"
      ],
      [
        "dish",
        "onour"
      ],
      [
        "Ch",
        "ris"
      ],
      [
        "Ye",
        "a"
      ],
      [
        "IT",
        "A"
      ],
      [
        "Pa",
        "ul"
      ],
      [
        "Bohemi",
        "a"
      ],
      [
        "HORTENS",
        "IO"
      ],
      [
        "PERD",
        "ITA"
      ],
      [
        "VIRGIL",
        "IA"
      ],
      [
        "L",
        "Y"
      ],
      [
        "S",
        "we"
      ],
      [
        "S",
        "LY"
      ],
      [
        "T",
        "ran"
      ],
      [
        "b",
        "or"
      ],
      [
        "f",
        "led"
      ],
      [
        "n",
        "ay"
      ],
      [
        "o",
        "cc"
      ],
      [
        "s",
        "per"
      ],
      [
        "s",
        "land"
      ],
      [
        "re",
        "ver"
      ],
      [
        "ir",
        "m"
      ],
      [
        "al",
        "k"
      ],
      [
        "fe",
        "it"
      ],
      [
        "ma",
        "li"
      ],
      [
        "bl",
        "ows"
      ],
      [
        "ak",
        "es"
      ],
      [
        "wor",
        "ship"
      ],
      [
        "ci",
        "ence"
      ],
      [
        "ast",
        "ard"
      ],
      [
        "off",
        "er"
      ],
      [
        "iti",
        "es"
      ],
      [
        "MAR",
        "IAN"
      ],
      [
        "led",
        "ge"
      ],
      [
        "bra",
        "ce"
      ],
      [
        "dr",
        "um"
      ],
      [
        "weep",
        "ing"
      ],
      [
        "St",
        "ay"
      ],
      [
        "kne",
        "e"
      ],
      [
        "gre",
        "et"
      ],
      [
        "banish",
        "ment"
      ],
      [
        "soldi",
        "er"
      ],
      [
        "subject",
        "s"
      ],
      [
        "GRE",
        "MIO"
      ],
      [
        "quick",
        "ly"
      ],
      [
        "bir",
        "th"
      ],
      [
        "guil",
        "ty"
      ],
      [
        "Isa",
        "bel"
      ],
      [
        "Swe",
        "et"
      ],
      [
        "MARIAN",
        "A"
      ],
      [
        "B",
        "l"
      ],
      [
        "E",
        "x"
      ],
      [
        "P",
        "AR"
      ],
      [
        "R",
        "A"
      ],
      [
        "S",
        "ign"
      ],
      [
        "W",
        "atch"
      ],
      [
        "d",
        "oo"
      ],
      [
        "g",
        "ent"
      ],
      [
        "i",
        "an"
      ],
      [
        "i",
        "ck"
      ],
      [
        "l",
        "ish"
      ],
      [
        "s",
        "us"
      ],
      [
        "th",
        "or"
      ],
      [
        "in",
        "no"
      ],
      [
        "st",
        "ood"
      ],
      [
        "me",
        "asure"
      ],
      [
        "le",
        "ast"
      ],
      [
        "ch",
        "ang"
      ],
      [
        "as",
        "sa"
      ],
      [
        "li",
        "c"
      ],
      [
        "li",
        "p"
      ],
      [
        "al",
        "most"
      ],
      [
        "do",
        "ing"
      ],
      [
        "will",
        "ing"
      ],
      [
        "con",
        "demn"
      ],
      [
        "ust",
        "om"
      ],
      [
        "mo",
        "ved"
      ],
      [
        "go",
        "vern"
      ],
      [
        "she",
        "pherd"
      ],
      [
        "per",
        "ate"
      ],
      [
        "di",
        "ed"
      ],
      [
        "bro",
        "ad"
      ],
      [
        "pro",
        "ceed"
      ],
      [
        "ple",
        "as"
      ],
      [
        "fi",
        "ed"
      ],
      [
        "when",
        "ce"
      ],
      [
        "mar",
        "ch"
      ],
      [
        "tre",
        "ason"
      ],
      [
        "gu",
        "ard"
      ],
      [
        "wer",
        "t"
      ],
      [
        "show",
        "s"
      ],
      [
        "sent",
        "ence"
      ],
      [
        "sle",
        "w"
      ],
      [
        "full",
        "y"
      ],
      [
        "gl",
        "ad"
      ],
      [
        "gen",
        "et"
      ],
      [
        "Eng",
        "lish"
      ],
      [
        "prison",
        "er"
      ],
      [
        "pos",
        "ition"
      ],
      [
        "deser",
        "ved"
      ],
      [
        "anta",
        "genet"
      ],
      [
        "wom",
        "b"
      ],
      [
        "cro",
        "ss"
      ],
      [
        "Pl",
        "antagenet"
      ],
      [
        "natur",
        "al"
      ],
      [
        "Tran",
        "io"
      ],
      [
        "PAR",
        "IS"
      ],
      [
        "D",
        "is"
      ],
      [
        "G",
        "aunt"
      ],
      [
        "H",
        "ark"
      ],
      [
        "M",
        "en"
      ],
      [
        "c",
        "ord"
      ],
      [
        "c",
        "orn"
      ],
      [
        "c",
        "itizen"
      ],
      [
        "d",
        "ar"
      ],
      [
        "e",
        "vil"
      ],
      [
        "g",
        "all"
      ],
      [
        "g",
        "ard"
      ],
      [
        "m",
        "ut"
      ],
      [
        "m",
        "id"
      ],
      [
        "p",
        "ing"
      ],
      [
        "r",
        "or"
      ],
      [
        "v",
        "ol"
      ],
      [
        "in",
        "es"
      ],
      [
        "en",
        "counter"
      ],
      [
        "at",
        "ors"
      ],
      [
        "st",
        "or"
      ],
      [
        "st",
        "one"
      ],
      [
        "st",
        "ers"
      ],
      [
        "no",
        "ise"
      ],
      [
        "se",
        "c"
      ],
      [
[...]
